035
3DC
006
023
3F8
3FC
3F9
03F
023
01C
3F8
3E7
3DE
02A
01F
3DF
00E
3F5
3D6
3E7
3F9
3DC
01C
01F
3EE
3B9
015
3E4
3E9
3FD
020
012
066
01F
3EB
3EA
3D0
3F8
3FD
009
023
00B
3DB
3FC
3A3
00D
014
04A
3FA
011
019
3FB
010
3E1
3EC
002
3DC
3B3
01A
01D
3FA
3DF
003
3DE
02D
000
3F4
3DD
00F
00B
3FC
3F0
001
016
00B
013
3E8
3FD
020
000
3EF
3ED
007
01C
3FD
002
3DE
3F9
3EF
010
001
3E5
001
01C
3E2
3E2
3E8
3ED
021
3FC
3E9
3FF
3F8
010
017
017
3EF
005
014
002
3EE
3D1
01D
002
3F3
00C
005
009
007
3E8
3DF
00C
3ED
002
019
007
011
3EB
023
033
3FF
3E0
3D2
3E1
3FC
3BC
002
017
3DB
3F6
3FF
01C
02D
001
009
3E5
03A
024
3ED
3E0
005
00B
017
3EF
00D
3E1
3DC
01B
002
00B
3F1
3DD
026
3FF
3E9
00C
3EA
3FB
3E8
008
3FF
3E0
024
01D
3E5
3CE
3F3
3DA
008
01B
3FA
3E7
3E9
012
3E6
049
025
3E4
003
000
011
01C
005
047
017
3EA
3DD
3DE
01C
3EE
3FF
015
3F9
3E9
011
027
014
3FB
3EB
01E
010
009
00A
3DE
019
016
019
021
3DE
3F5
3D8
017
3FC
3E2
3DD
3FE
033
3EF
3E4
009
00D
3FA
3FB
01F
013
3F7
3EC
3EF
3E6
3D1
01A
3ED
3D9
00D
011
3E0
017
3E2
3E5
021
01A
3F7
004
012
013
3EF
01D
02E
01E
019
02A
3D9
3DE
3E0
3E0
010
3F7
000
011
01E
02A
3E0
3FF
3F5
04D
007
3EF
3E1
3EA
3FE
3E7
3FD
3E4
3ED
3DD
3E5
000
010
3C8
3DB
019
3DD
019
3E4
3E3
3F4
3F2
3EF
00F
01C
00B
3EC
3FE
3D7
00F
3F4
3F9
3F6
01C
3DD
3FA
3DD
01F
023
018
3E5
3F9
017
015
3FA
3F2
3FB
01B
3EE
010
000
3F7
3FD
00B
019
004
020
3DB
02C
3F1
3FC
3E1
00F
03C
3EC
3F7
021
3F1
3FA
01E
01D
00A
002
3DE
020
3E9
3E4
3C9
3DF
020
3E8
027
3E2
3E7
00D
3F9
3E2
00C
00A
005
3E8
3FE
004
3DB
3E4
3F0
022
3DA
010
024
019
00F
051
3EE
3DC
3F0
3DE
3FE
3FD
019
005
3E5
3E9
01A
3FB
3F5
002
3E1
004
3E2
3FB
01C
020
3EE
016
3DF
016
01B
024
3EF
017
3F6
3E8
01F
017
3F5
009
3F3
3E9
3EB
00A
3C8
3F4
028
3F2
3F7
019
3DB
3F3
3D5
3E2
025
3FA
003
3F6
00B
012
3E5
3DC
017
3E9
007
00D
3EE
018
01A
026
003
3FC
3E8
3EA
3D4
00E
3D4
034
3FD
3FF
3F6
3DD
00F
3E9
012
3EA
003
3E4
3E4
010
023
3F7
002
3F0
04A
3E6
00D
003
3EA
01F
3DB
3DF
3DD
00E
3E7
001
004
3E5
001
3D0
021
3F4
00D
017
000
3DF
3DC
3F6
01A
008
3F0
004
022
017
3E5
013
3D8
3FE
3FE
01C
011
3F8
3E5
01D
018
3DB
013
3E9
3D6
3DA
3DE
001
01C
00B
00C
3DA
3FF
3DE
016
3E1
3EB
3F9
011
032
3FE
013
00E
021
01C
00B
3F4
3E8
01C
011
3F2
3FB
3FC
3FD
000
015
01A
00D
3FB
3E8
007
3E5
002
3F5
3E8
3E4
001
018
008
3F4
00E
013
003
3C1
3F8
3F4
008
3F5
01D
012
3DC
008
00D
022
018
3F8
3F7
3F4
3FA
3DC
3E0
015
3F5
3E6
3D7
3E1
000
00F
3F4
3E0
3EE
3FA
014
001
033
019
00B
003
030
3C3
3DF
3EA
00E
020
3E0
00E
3FA
3F2
3EB
012
00B
001
3CA
3CD
03C
3DE
01A
019
008
01A
3E3
3FC
02D
017
00E
017
004
3D6
022
3E8
3F6
3E1
009
3E0
3DB
3FB
007
05F
3FC
3EA
3F1
3F9
00E
3FF
3F1
023
3ED
024
00B
00E
005
3E5
005
3EC
004
3E5
3EE
3D3
025
006
3F3
3F8
013
007
018
010
007
3E0
011
00E
3E5
3F2
019
3F3
023
3F2
3E2
001
042
3E5
009
014
023
3E5
3DA
00C
039
013
00B
00F
012
3D0
3F8
000
003
3F2
019
3FA
009
3EA
3EB
014
008
3E4
01D
3EF
021
01D
00E
008
00D
01F
3F8
3F2
018
3FD
014
3EA
3EE
3E9
001
00F
037
3FB
3F1
3DE
005
3CC
00A
3DD
011
01B
01A
008
3F0
012
3EB
009
3EE
3D7
3DE
3E5
023
017
008
3E3
3E9
011
3E2
3E3
03F
3DC
016
037
3F4
3B9
3E2
022
3DE
019
3DC
3DA
008
3E0
00F
046
3DB
01A
3EB
006
025
3E0
3F9
026
3D8
3E0
3DF
3E9
014
3BA
3DE
015
004
3DD
3F8
00B
021
3E5
3E0
3DF
00F
01B
3FE
00C
012
3ED
3DD
3F1
3FC
01C
010
014
3FE
3EC
3EF
01E
01D
3E6
00A
3DA
002
3FB
3E5
3E0
3EE
00A
3F1
003
00F
3D2
01E
00A
3D6
3FB
015
3ED
3F8
013
3FF
055
017
005
3FC
003
000
3E8
022
001
3DF
3FA
3DA
3E9
002
3CF
008
3E2
3EC
021
006
3FD
014
3DF
3DD
3E2
02C
3E6
3F6
021
008
3DE
3E9
3D3
3DD
3E9
3F5
3F8
3F0
3FE
3D7
005
3D8
00B
3FC
3FC
3FD
002
3F3
021
3FC
3ED
026
3FC
019
3F7
01C
3E0
3F9
00A
01B
3F3
015
3F7
009
010
019
3E7
3E4
007
3E8
015
0C9
03E
3ED
013
05F
006
004
07F
3DB
01B
011
00E
3DB
020
355
3DC
00A
3E1
032
052
3E0
3F5
00E
3E5
01F
3A4
007
002
039
3DA
3E9
03B
04A
028
372
3FB
3D6
3BB
3EF
000
3E3
023
3AF
3F3
04C
337
3F7
084
3DE
005
09B
021
3F2
019
3DD
015
3E6
002
09C
008
3E8
017
3F7
3E3
3F6
01A
3F8
3FB
021
014
3E1
010
3FA
008
3F6
007
3FE
3ED
011
3FF
001
00D
3F7
3E7
3F3
009
3DC
3E2
3EE
002
3FF
007
00B
3EE
3F8
006
3EC
024
3F8
3EC
00A
027
3F0
006
002
3DD
3FC
00D
00D
02C
3F7
3C6
01B
002
3D6
3F7
008
003
011
010
022
3FC
005
3F9
3DE
005
031
001
021
033
01A
3ED
3F2
01E
3E8
3BA
3F5
013
3F8
01F
3DE
010
034
018
01C
3DF
01A
027
009
017
3F6
3DF
3F3
3E6
3EC
009
3F2
00D
003
001
3A8
3EF
051
3FF
03D
3D9
3FF
3E1
3EE
3DF
026
001
3ED
036
3F6
3D3
3F1
3DA
3EF
020
3DB
00F
3F4
3FB
023
052
3F4
3F1
3E4
3F0
01C
00E
3F7
02C
017
3F3
3E0
019
3FC
3BB
3F9
3E7
01D
3DF
011
025
031
006
010
3E1
048
3FC
00C
006
3ED
3E4
005
3F6
3EA
3E1
017
00A
01B
011
3B6
3EF
005
3FE
00D
3E7
00A
3DD
017
3EE
014
011
3F5
02C
00C
3F9
3FE
01F
3E8
3EF
3F6
3EE
3F0
3ED
3E0
02B
3FC
3E2
024
3E3
00D
3D9
3F9
036
01B
3FF
020
01C
012
3E1
012
3FE
008
3E1
3E1
00C
3F5
3FF
3F1
024
062
3FE
3DF
3E9
010
016
016
037
011
01D
3D6
3EB
3E1
3DE
3A0
3BE
00C
019
023
3FA
3E1
3DD
007
3FB
013
004
02D
00C
3F5
01D
3E6
01F
031
3EE
3FF
3D9
3E7
002
010
02A
00C
005
021
00C
3F6
015
017
02F
3E9
3DD
040
3F8
00F
3D4
017
004
002
3F2
3E8
029
006
006
3E7
3FD
04E
00B
016
019
015
3EA
010
044
3E8
002
3F9
00A
00C
034
398
3C0
010
3E4
00F
014
005
01A
3F8
3EA
018
012
007
3E6
01D
016
3F0
00E
010
3F0
3F2
013
01B
3FB
021
045
3CC
3F5
007
011
006
020
3EB
017
3E1
3F7
045
3D8
00C
031
3F6
3F7
01F
3F6
01A
014
3CB
00B
3DD
000
052
3E8
00C
006
3F9
01A
3F5
04A
3DC
3F6
3F5
009
006
3FC
3BA
3F5
3F1
3F3
001
020
3FD
3DE
00F
016
004
3E3
3FA
3F1
3F4
027
017
3E0
00B
003
020
3D9
3F5
3DC
3E9
042
3B3
019
3F3
3FA
00C
3DB
3DA
3F1
3ED
3DB
032
3E1
3DF
018
3F6
01A
013
3E5
3E3
01C
3D8
021
3FC
01D
031
3FE
00C
3E1
3E7
3DE
014
074
3E4
008
3DD
013
3DB
018
3C1
3DA
3DC
3DE
015
061
3E7
019
3F0
003
01E
3FB
021
3FB
015
038
006
3DD
3FA
00B
3EE
3FC
023
3FD
3E4
00C
3D9
00C
00C
3F9
004
3DE
3B0
3F4
3E0
008
03D
3F1
01A
00F
3E4
3F9
3D9
3F7
3E3
3FC
3EF
3F3
003
01D
020
3D0
010
009
3F6
00B
01B
059
020
00F
3E5
001
3EE
019
3D4
3CB
014
013
028
02A
00B
3FE
3DB
3E2
034
00A
001
3FC
3DD
03C
3EC
3F8
3DC
3EC
00C
022
015
020
008
00B
3CB
3E0
3DB
018
01E
3F3
3C1
002
3E2
3EE
059
3DB
3EF
006
001
3DE
00F
3D9
3FC
002
004
3DF
3EF
3FE
3E6
3DD
023
3E1
002
3F2
3FB
029
3DF
00B
000
3E4
3DD
3F9
001
001
3FE
3DB
009
04D
019
022
3D7
015
01E
3F5
3F9
3F7
00F
026
3F9
006
007
017
004
3EB
3E7
3EE
015
01D
3D1
3F7
3F0
3FD
008
005
3BF
01B
3D8
001
013
3EE
3DB
02C
3EC
01B
3EE
3EB
004
3DB
019
3EE
3F5
3F8
013
3DE
018
3E9
3E9
3EA
00B
018
3E4
01C
3DC
019
009
00F
3FC
3EF
043
00A
016
008
3F7
00E
3D3
020
041
3EA
3E0
006
3EC
3FD
3EE
3FB
3E1
3DD
001
3F0
3F0
015
013
001
3D5
3FA
01F
3FC
3F5
018
3EC
012
3E5
3E7
3F5
3E0
008
3E0
3FA
014
3FB
3EE
3ED
005
030
01B
001
012
02A
3F8
3E3
3DF
00B
3DB
010
012
010
3DE
3FB
3DC
3F0
3D2
3BA
3F2
040
01A
3FC
012
020
3F5
3DB
3E4
041
00A
027
00C
3E8
3E0
00F
00A
3EB
003
005
3F3
3EA
3ED
006
026
3FB
3DB
018
01B
00F
3FD
3DD
01E
3D9
018
3F5
3DD
3EE
3CD
003
3E9
3EC
3E0
3EB
00C
016
01E
01D
3E7
3F3
3F1
3FE
3E6
002
3E8
004
004
3E3
00F
3DE
3DA
01A
3E2
3C5
3E3
060
01E
3FF
01C
019
009
3F4
3EA
014
017
01B
041
3EA
3EA
3E0
3FC
3FB
3EE
3EE
3FF
00E
3E6
3FD
046
3EF
022
3E3
3DC
00C
3FA
3F9
029
3EB
003
003
002
3FC
3AE
004
017
3DF
012
011
3F9
044
3FA
3F2
007
3F1
3F6
01D
3EF
3ED
01C
3FA
005
3F1
3F8
00F
012
023
3ED
3DD
3FF
037
020
000
3FB
3EA
012
3FE
3EA
043
017
3FE
04D
3DC
39B
000
017
3F8
3DF
012
006
3E5
3F5
3F4
041
018
010
020
013
016
000
3DB
021
018
011
3D6
010
3ED
3BD
3FF
3F9
018
3F5
01F
00F
037
01B
009
000
016
3FD
3F5
010
3F7
01B
021
3FA
002
3DD
018
3E2
3EC
000
3E0
01E
052
3FF
019
3D3
3E7
3E2
3F7
01A
015
023
00F
01B
007
3BE
3F9
3F7
3D6
016
002
3F6
3F3
000
014
041
3E0
3F1
3F2
3FB
3F5
01D
00C
003
3E0
3FC
000
3FD
3F4
3F4
3F7
010
3DB
016
00A
3E4
009
019
3D8
014
3F5
3EB
3DA
3F7
3E5
011
3E1
019
00B
3E5
027
3DD
00B
3F4
002
02C
3F7
016
002
3F5
3F0
3EB
024
01B
00F
3F9
3F7
3E7
011
000
3DF
3EE
3E1
004
018
3FD
011
3DA
3F0
3FC
015
00F
012
3F7
00B
01C
015
001
008
3EE
01A
01F
01E
3DF
001
3E6
3DF
3EB
3E0
3DB
01E
3FA
01D
3FF
024
3DA
3FF
01A
019
3FA
021
3FC
00E
009
003
3FA
004
02A
3EA
3FF
00B
3DF
025
025
3F1
002
3E9
3DF
013
3E0
00E
022
3EA
3D9
012
3E7
3DC
007
00E
00A
014
3F6
3E5
3D3
018
3F5
020
3F6
00B
3EE
033
03D
014
3F5
3FB
3EA
3F5
3DF
3DD
003
018
3F3
00C
3F8
02E
3E1
3E3
3EF
027
011
022
3EF
3FA
020
3E1
3FF
3DE
3F1
3EC
016
010
3E5
3D0
00F
031
3FA
006
3FC
01E
005
01E
00F
3F7
3DD
3FB
03E
004
3C5
01B
3FC
3F8
00B
3E8
3F2
008
3F3
3E9
001
3D5
3E8
3FF
018
00F
3F6
00B
034
01D
003
3EC
00A
3FA
005
3E6
3E1
3F4
01D
01E
01B
3E0
3E2
004
002
01E
020
3DA
001
010
012
01D
02E
014
3E7
023
009
3ED
3F3
3D7
01A
3F2
3EB
3E0
3F7
007
3E1
001
3F2
001
3E2
032
3FC
3E3
3E6
010
3E2
3EF
3F6
00D
3E6
005
3F4
01E
01E
3EB
01C
3FA
3DF
3F5
018
03E
014
3FC
002
04F
009
3E0
3EC
3EF
3FB
3FF
3FF
3FF
3D7
3E3
3F7
01B
011
046
031
00D
3F4
01F
012
3E3
030
00C
3E1
002
3E6
000
3F5
3C7
3EE
3FE
002
3EC
3EB
01E
01A
02A
3F3
030
00F
03C
3C8
3F4
3FA
001
3F5
035
3E1
3F1
3FB
021
001
3F8
054
00D
00A
3F2
3FE
001
3F8
028
004
3D8
013
053
3DD
01B
00F
3E0
3F5
001
008
01D
031
3DC
008
3F4
016
02E
024
017
021
3E3
019
3F7
023
3E0
3EF
3E2
3EC
3DF
01F
3CB
3E1
3B5
01A
3DE
00F
3E8
022
026
3F9
3F9
016
020
3FF
3E2
00C
00D
012
058
006
3E7
00C
3E1
3DA
00D
067
3CA
01A
3DB
009
3EF
3EA
3F3
016
3FB
3E3
042
014
3EA
04D
3FA
01D
01D
3EA
3DD
049
3E4
009
010
000
02E
3EB
3FD
3E6
020
000
003
01C
006
3F4
3DE
018
3EC
00E
3BD
3E9
3A0
3ED
005
02B
3E8
014
030
3EE
003
022
018
008
3E8
05D
3DB
3EE
011
3FF
3E7
00A
3F7
012
012
011
3B9
3E8
3E1
3F2
3F2
018
3E2
3DF
3EA
021
020
3E0
020
008
3E3
3DD
3EF
011
3DF
01E
3D5
017
019
3EC
017
3D8
3EB
3EA
3DB
3F3
3F3
010
3F2
017
3CA
017
00F
3F6
3CE
004
3D2
3DC
013
028
003
3ED
3FB
3E2
010
3FC
021
3F7
3FF
06D
022
005
3DF
011
3FB
3EF
3DE
018
024
3F7
3D2
3E4
007
3DF
009
3E4
3CD
3A6
3E6
3FF
035
3DF
009
01F
016
3DB
3F1
019
3DB
00E
3D0
3F8
01F
006
3FA
3C3
3E1
021
013
001
018
021
3FD
023
3E5
01F
00E
3DC
3E7
005
016
00F
033
01F
007
3DD
3E0
021
012
01A
03E
013
003
025
019
3DA
3FE
01B
3EE
3EB
3E3
3E6
3E6
015
3E1
3E7
009
3E6
00F
3FE
3A6
3C8
3F2
3FB
033
01F
01E
00D
020
3DF
3F6
01C
3F6
3EC
3E6
019
018
3F2
002
3D0
3E5
3E2
3FB
3F5
3EF
026
3DF
3E7
3E3
008
013
3F8
3D9
3D6
013
3EF
00B
015
021
3FD
013
3E8
01B
3DF
3FF
3FD
3DD
048
3FC
3EF
009
01A
019
006
016
3FF
021
3F6
3F2
01D
01A
3F0
028
3F2
3C0
3E1
3FE
3F3
3E3
3E7
00D
02E
3E4
3EF
3EA
021
3F9
00D
3DF
017
002
01C
011
3F2
3EE
015
3FE
3FB
3DD
021
3F2
024
3D9
3DF
021
006
3DB
3E7
044
3E8
01B
3EB
010
014
3F5
00F
015
01C
015
00D
3E6
009
3EB
3F1
3E2
010
014
3DE
3FE
00E
011
3FE
3EC
016
3FF
3ED
01B
014
3EE
3FC
3DE
006
02C
014
00D
044
3E9
016
3E0
3FE
00C
012
3EB
3F7
001
3F9
003
006
3FC
012
3FA
3D8
3DD
010
00A
3E5
3E5
3FB
3EB
026
3D2
3AC
01E
3E4
017
016
012
3DC
006
3EF
01B
01C
019
00A
3FD
3D2
016
3DB
018
018
3FE
3FB
006
3E5
3EE
3E1
002
3E3
3DD
3E7
3F7
00D
3D0
3F6
01F
3EF
3D8
3F8
3FD
3FD
003
00A
3E3
3FD
012
3FC
3CF
3F5
021
3DF
3F7
3F8
012
013
3E1
3DF
01D
027
013
004
3F9
3F1
00E
3E6
028
3CB
056
01C
3FB
3F5
001
012
003
3E4
001
01C
3E5
030
3E7
008
3DF
3EF
3F7
3FE
3E0
3FF
3FA
016
3FC
3F5
3E8
3DF
01C
3D8
019
000
3F7
02B
3F9
010
3EA
3ED
3F6
3F8
3EA
3E7
018
01E
3DD
00E
3EB
3E4
3E0
3F6
03A
3FC
00F
3F6
3FB
003
3FD
01F
3E3
3E3
3EE
018
01A
3F9
3C3
3F7
047
016
018
3F5
00F
3E2
001
00A
3FC
3F0
3BD
01D
3EC
3D1
3E1
01A
00A
3E2
3ED
3E7
3DB
008
3FC
016
3F9
3FE
3DE
3F8
006
3EA
00E
027
00E
3E6
3EB
3E1
3EB
3E2
004
003
3F7
3FA
3FE
00A
021
3F7
3E7
3F2
008
3ED
3EE
3EC
01E
3FF
3F0
015
00D
022
00E
3EB
3FE
3D4
3DE
3E2
020
016
3FF
3FC
00D
3EE
027
3F9
030
3DE
003
030
00F
3AE
01A
3FD
032
3ED
018
010
014
013
01D
02D
3EA
3F1
017
3F6
00A
005
3F0
3FF
020
001
002
00D
3D9
3E6
3DC
003
3F2
01D
008
3DE
3E3
00D
3ED
007
3F6
3EF
3FE
011
3DF
3DA
3E0
00B
3DC
3E7
3FE
3DF
3F6
02B
028
3FF
3F9
3FC
046
012
007
002
3FB
017
00F
3F2
01A
3E8
3F0
3EE
012
00A
3DB
3F6
000
014
01D
3E9
020
008
016
3F7
3DD
002
3E3
3FE
00E
015
3F7
3FB
3E1
014
020
3F7
01D
01B
00F
007
002
011
012
015
005
020
03E
3E4
01D
00F
3E5
3E5
00F
012
3DB
3E3
002
3DE
022
00C
3E5
005
01D
3EA
008
3FC
00B
00D
3E4
017
013
3E3
025
00F
023
3C9
01F
015
3F2
3DD
01D
3ED
3F3
021
3FC
3EB
015
3F2
3F4
3F9
02B
005
009
05E
00D
3FB
013
3DD
3EB
00A
3EA
001
3DA
020
3EA
00B
3FB
3E8
00C
3DF
054
017
017
006
3F5
016
01B
3FA
000
3F8
00C
000
3FC
000
3DB
02B
008
3EA
013
009
3EF
3F9
3F7
023
018
3DD
01C
027
3E1
005
023
3EF
3D4
3FE
3DD
3E4
00B
3EF
005
038
003
01C
01A
012
3EF
01E
01A
017
3F6
3EC
001
3E7
006
00D
013
000
3F6
01E
01A
005
3B9
3DD
005
3E4
027
044
022
3F7
3E2
3F3
3E5
3F8
019
01E
019
00C
3E2
3F3
3CC
3E3
3D5
3E2
01F
3F1
014
020
032
004
01D
3E5
03A
01E
3F9
00E
005
3FC
3F2
002
005
3FB
3EF
01A
00A
02C
009
00F
3DE
3F8
003
00D
3FF
008
3D7
3E9
05C
013
3ED
3F8
001
012
3E2
00A
3FD
010
3D6
3FF
018
3DC
049
02D
000
3F7
3E4
012
3E1
01C
3F6
00C
3E4
009
01B
01E
3C4
3DB
3DC
01F
014
03A
003
00C
02D
006
024
01F
01E
3D0
3FC
3F2
012
009
006
006
3EF
00C
01B
015
3DF
02D
3DD
3E6
024
3F1
3F1
3DF
3FE
007
3DA
3E7
02A
3F4
018
012
00A
3DB
01C
3DA
3EC
018
3BF
3F2
3E4
3DF
009
035
017
3EA
3DF
003
016
011
01C
003
3C2
019
3F2
032
3A9
3EB
36C
019
022
022
00D
007
035
003
054
3EB
012
3D3
3FB
03D
3E2
010
035
3DF
3DD
012
3E1
3D9
00C
015
3F8
022
00E
3D8
3F7
3FC
3E3
3F0
021
3F7
071
3F2
3EE
034
00C
3E4
3E8
00E
01C
02F
3D9
004
00C
018
033
3EC
00F
3FE
3EE
3E5
3FE
00B
3EB
3FF
3C7
004
3E3
020
3A6
01E
382
3EA
3F4
011
3F1
01D
012
016
3F9
023
01E
3F8
012
00B
3FA
007
011
00E
01A
3E9
3DC
00E
3F0
01E
3C7
004
022
3F9
001
3E4
3D3
000
3E3
019
052
020
3E5
066
3E1
020
3E9
3EE
014
011
3EE
00C
3E3
3E3
013
3BB
013
005
001
00F
00C
011
3FB
3F7
3B8
3F4
3E7
010
3A8
018
3C5
005
016
02C
3FE
004
3A9
3F6
016
3FD
035
3B1
3E8
050
006
3ED
3E4
3F5
3E9
3E8
002
009
3EB
021
3C1
013
3E5
003
029
3E9
3CA
3CA
3E0
004
020
007
3E5
034
3ED
023
3F6
3ED
3DE
00F
3E8
00C
3FF
008
007
3C7
005
004
01D
010
3E3
3ED
3E2
01A
3AE
018
022
3C2
3A9
3DF
3DE
3F6
01A
020
3EA
012
004
3FC
3FA
000
01D
3B4
3EA
05D
00A
003
3E6
01D
007
01F
3E5
3F5
3F5
3F0
3C5
3F9
014
3EF
3CB
016
3C6
3E0
3F4
3FD
3F4
003
00C
014
004
3F9
3F2
001
020
00A
3B1
013
00C
3F0
01B
3B8
010
011
3E0
3F3
00F
007
3E6
3F4
006
00C
3F1
026
3C8
391
01D
00B
022
3F2
3F9
3F1
3E8
3F3
00F
008
012
3E2
3EA
01F
3FF
015
01C
3F5
01A
002
3E1
004
00E
3F1
3EF
015
3E0
3EB
3EA
014
3BD
3DE
011
001
3DE
022
3F1
3EF
3DE
007
01A
3E9
00D
03C
3B1
00C
01E
3FC
3CA
3E5
3DB
020
00E
019
3EF
010
3E0
3F9
3D6
012
009
006
3C7
3BB
013
3F3
008
3E2
3FA
018
3F0
3E8
3C7
002
006
040
3E7
01B
019
000
3ED
3E0
3DB
3E8
003
3DC
3FE
3DC
005
3FB
3E2
018
3F7
016
3D8
3E7
3F9
01B
3DA
3FC
020
002
006
3FD
01D
016
3F7
032
3CF
014
002
024
3EB
3E2
3E8
3DD
3FC
3F7
00A
02E
3EC
3FF
3FD
3E4
01F
006
3D9
3A9
027
010
020
029
017
021
014
00D
3B8
3FE
013
3F3
3ED
3E7
3E0
3F0
02C
3DB
004
3DA
00B
3F1
021
3C7
3E8
3FC
3F9
01B
3FC
3F3
3D2
019
3DE
3F4
3DA
012
006
3F3
3E5
018
3E6
3F4
3F1
059
3EE
3E6
3E7
3EA
005
3EC
3E8
3EE
3F8
00B
3E0
02E
016
3FF
3CE
3DA
001
3F5
018
3D5
030
3E7
3F7
00B
3E5
018
043
3FD
3D6
011
3D8
039
3EF
3B6
3EE
3FD
3F9
001
015
000
3EE
3E2
3E3
3E0
01A
013
006
3E5
3D8
010
3DA
01A
3FA
3F5
3F5
3F6
3DC
3FA
3ED
013
3DC
3FA
022
001
3DD
016
01D
3F4
3F3
016
3E1
3F7
3EF
3F4
3E6
015
3E8
008
3C2
010
015
3E4
3D1
3FC
00F
3E0
02D
013
001
013
055
3FE
3CB
3EB
3FF
00A
01B
3B7
018
005
3F5
3F0
3F2
3EF
3F1
3E6
3FB
3CE
006
3E7
3DC
3DD
020
00D
00B
044
00F
3EF
3D8
3EE
3E3
3E0
017
3DD
3FF
01D
3F0
3FF
00B
010
3DA
01E
007
028
022
3EF
00C
00E
3E3
3EB
3FC
3E2
3EE
01F
017
003
3E0
3E7
024
01F
025
3F3
3ED
017
017
00B
3FE
006
3F5
003
3DE
3B7
020
00A
02F
3FB
021
3D9
01F
020
3F5
00E
004
3E0
3E9
3EA
3E6
3E7
002
010
014
3F5
013
002
3F2
3FA
3EB
012
3E3
3E0
3E1
3E5
3F7
020
011
3E5
3CE
015
3FF
00F
00C
018
024
3E1
3FA
001
3FE
3F2
3DD
3FA
037
000
027
3DD
01D
3FC
020
020
014
3EA
3E0
3EA
000
3D9
3F0
3D8
024
01B
3E4
3FC
3DF
01C
3EF
000
007
02D
3FA
014
3E3
3F4
015
002
01D
00F
014
000
3F5
01B
3DC
00A
3F0
3DA
006
013
3F3
011
3D1
3DB
011
3DD
021
023
01B
3E9
3EE
3DE
00B
012
3E4
000
3E5
3FA
012
001
003
3E8
3F9
3FC
3E0
042
3DF
00E
01F
3EB
021
01A
3FE
011
002
3D5
3EB
015
023
3DD
00D
3E5
3DF
009
3E1
3D3
3DC
3F5
3DE
3EF
015
3F9
012
005
3E9
01F
3F0
3F5
3F3
00F
007
3DE
3EE
3E9
3FC
3EF
001
01B
3E1
3EB
045
042
3E5
3F4
00E
018
3EB
3F5
009
01D
02D
001
009
022
015
035
012
008
3ED
00E
3E8
3EF
00D
3E2
006
3DE
019
3DF
01A
013
016
3F9
007
002
3DC
00B
01C
3F2
013
3FC
3DE
3ED
3E8
3E7
008
022
00E
3D4
3F3
015
030
3F2
020
3F8
3F4
00B
020
010
020
015
3D5
3FC
010
002
04C
069
3E6
015
3EA
3E3
3EF
00B
017
01D
011
3DF
3DA
005
3FE
3FE
3BF
01F
000
01B
3F6
3E8
3FD
00A
3E4
3E6
00F
3C7
002
020
3E2
3DC
3F4
01B
00B
007
3E8
3F0
013
3FC
017
018
00D
3DA
3E1
014
3E6
3D2
00F
3DD
031
3E5
019
008
3E9
016
00A
019
3F8
3F2
3FC
3FF
3E7
3FC
043
075
3DC
002
00A
015
3FA
3D2
3F5
024
3F2
3E9
3F3
029
3DD
024
39E
015
018
3DF
3F2
3FA
009
024
027
002
032
3BE
009
3ED
3F8
3DC
040
009
01E
00C
3EA
3E5
008
03A
3EE
3EC
3EB
005
3E9
000
3C0
3BA
012
3E7
05B
002
01B
023
3EF
004
00A
3FE
00C
3E9
3F4
01C
3DC
3EC
03F
034
010
01A
023
3F5
016
3ED
3E3
3DC
3C3
3EB
3F5
01E
3FD
00A
358
3EA
015
033
3EB
3ED
3F4
01C
07B
00A
013
3AB
005
3E0
3E2
3DB
02F
3EA
00A
3DC
3E3
3FD
005
3DC
3F0
011
3DD
009
3EA
012
3BE
003
001
3E2
0A5
01F
3E1
032
01F
3FF
3E7
3E9
023
024
39B
3E6
008
3F9
039
381
021
3E1
3F0
00E
3E5
030
3FD
001
3AC
008
3FB
00B
009
004
32C
01C
011
00B
3F0
006
3BD
00F
067
020
034
38D
012
00B
005
010
01D
00D
014
01E
3EE
3DA
00B
3DE
3E7
01A
005
3FC
012
000
3F2
04C
3EA
001
02F
017
008
04A
3E4
3EB
3FA
015
00F
019
00F
005
021
01D
026
39A
3F2
3F3
3F1
3D6
00D
009
3EC
003
3ED
3FD
3E2
00C
382
042
3DE
3DE
01C
019
3E8
00F
3A4
3FC
3F7
014
037
392
3EC
060
3FE
019
3DB
015
3E1
3F5
3EA
3F8
3FD
038
3E9
00B
3DF
018
3FE
007
3AD
3DE
002
015
3F2
01C
015
05C
017
01A
3E6
3E8
009
002
3E7
3E3
005
3DC
005
3C9
005
008
00B
3D9
3DE
3D7
3EF
3F9
006
3FF
3DA
02E
387
3FC
3FF
00B
032
036
3E5
3EF
3E7
005
385
010
018
3A9
3F0
071
3E3
011
3BD
3DD
3FF
3E0
3E4
009
3F0
022
004
006
022
00B
3D9
023
3C5
3FF
01B
3DB
3E1
3E6
016
032
005
00C
010
00E
3E0
04A
3B8
3E3
3E5
3F9
030
01A
3ED
3F7
3E4
3DA
3F5
3CA
01D
012
3F9
3F4
006
010
3BA
39F
03C
3F0
021
029
00D
3E5
3E0
002
3AE
007
011
3FC
3F5
030
3E7
3F3
3F4
003
004
01A
3DC
3EC
3EB
3F9
007
004
011
3E7
01D
3E8
3DB
3F7
012
007
002
005
3F8
3C7
3E8
3F4
3F7
3E5
017
01D
37A
3DB
016
3DE
3E8
001
01F
017
3ED
3F7
3E0
3EE
3F1
00A
3D9
3ED
3F1
035
3F0
391
028
3FB
3FC
005
3DE
00A
3B6
3F0
3B0
3E2
007
3E3
01E
3F4
00E
011
3C8
3F8
3F7
01F
3E9
01E
3F8
3B7
3FC
002
3FF
3FA
00D
3E0
3DE
3BF
003
3F4
3C9
3ED
3E4
3F9
019
003
3F8
01C
006
039
395
3E9
004
3F5
016
004
00E
020
00A
000
3F5
3D8
3F5
000
3F9
3D9
3F1
3F9
02E
3A7
036
00F
014
029
3E1
002
060
3F1
3AB
3DC
3E5
010
3F6
3CB
017
3F4
3E6
009
3EC
00A
3E4
3DC
01C
3D8
3DE
3EA
01E
005
00C
3FF
3FE
3E4
001
3F9
3E5
004
01D
011
3F5
013
014
3EB
3DC
040
3A9
3F5
00E
008
005
00D
014
3FD
003
006
3F9
3EA
014
3FD
3BE
3F3
3D9
01A
015
381
00F
3E2
01D
3F1
014
3F0
02F
004
3AD
3FF
3E5
3DF
00B
3C2
008
3E9
3F7
003
3EB
3E8
00F
3FD
3E3
3C3
023
005
3DC
002
3F1
009
01A
01B
3EB
015
3FE
01D
3FB
01B
3F9
3E4
3EC
01A
00B
033
3A3
011
014
00D
3D7
055
00A
3E3
010
011
3ED
02A
01F
3EF
3CC
3E8
3EA
00D
02B
3B4
037
012
00D
031
3E6
01B
017
003
3D4
3FC
020
003
3F5
3A3
013
00C
009
01B
3F6
3E4
022
3EA
01C
3EE
001
3DD
3EC
3FC
00C
3EE
02D
043
3D7
3EA
3F0
3D9
3F2
00A
3E4
3DE
007
00C
3EB
01F
00E
018
3FF
3EE
3E4
3F7
3EC
3E5
3FF
3FB
3FA
002
3F9
01F
3F8
3E8
013
3FA
3FF
00A
047
01D
013
3CC
3E7
3F7
00D
008
3FF
012
021
023
3ED
383
3DE
3E1
02B
01F
3ED
00D
003
3DD
01E
3F1
3F6
015
3EE
005
3FF
3E1
025
00F
3E7
3FE
001
3F8
004
000
3E5
3F4
3DF
015
3DF
3E8
3E8
3F7
3EE
00D
3C3
003
3E2
012
3FD
3DD
3FB
015
3F1
000
01A
002
3FE
01E
01E
036
3F4
3F3
01F
3FB
3E1
00A
3E6
3E2
3FF
3E1
01C
01F
3ED
3E2
002
012
3DD
3F2
007
022
3FD
01C
3DF
3FA
002
3DB
021
005
3ED
017
020
01D
00E
00B
3FE
3E6
00F
3FF
00A
017
013
00C
3ED
3BF
00B
3F9
3EE
023
040
3FA
3FE
3EE
00D
3FF
01E
025
010
00A
004
004
3E5
006
011
3F4
3E9
024
025
00E
023
3DF
3D8
00C
009
3EB
3F4
3D7
3EA
3F8
001
01F
01C
3E2
01A
021
3EC
3F4
3E8
3D0
3ED
3F4
01F
3FC
012
3E3
04F
3F8
3F1
01D
3E2
3EC
3E2
028
3E7
3F1
3F6
3E5
01B
3EF
3D8
3E7
3F6
013
045
05A
00D
3DE
01F
3F0
006
01D
3FE
005
007
3FC
3F8
3DE
015
027
3E3
3FB
00A
3B7
01D
017
3DD
005
00A
3E0
009
3FD
3E3
000
3F2
3DC
021
3FD
020
00E
3F2
015
3DC
00E
018
3DE
008
000
3DE
001
004
3DF
3E5
020
03C
3F8
00A
036
3FB
01B
014
3E1
010
020
3E5
3FA
3E7
3E9
047
05B
3E4
01A
007
018
007
015
3EE
3E4
3F6
01F
3E7
02E
027
039
3D3
017
009
015
3F0
3FF
3D0
3DE
01D
00B
042
3D5
020
3EC
002
01F
3E9
009
002
3F4
01D
3FA
3F5
01F
3E3
024
3DC
00B
00A
3F7
3F5
3A6
00D
00E
05E
00F
018
016
019
005
022
3DE
003
00A
3D9
3F1
001
001
024
0AA
3FB
002
018
3E9
00F
021
3F0
3FB
3C7
019
3FA
043
058
02A
3AC
3F5
008
016
3E4
016
3D2
3E2
018
3DA
013
3CA
00F
3D5
01D
012
02F
3FE
3FA
00E
3F9
017
3FE
009
3C9
3FD
3FD
3FD
3DC
3E2
014
3A7
3FB
01D
09D
3D9
016
02A
3E7
005
3E3
003
019
01F
3F7
3DD
3F5
3F3
029
00D
3EA
011
3DB
000
018
02C
017
00F
3AC
3E1
3DB
040
035
049
353
3E0
01D
002
3E1
3E3
3F5
005
014
3E3
021
3C2
3EF
3C8
3F6
01C
037
3ED
000
3ED
011
3DE
014
015
3CF
3F2
3E9
010
3F2
018
3A7
000
3E0
3E3
101
009
010
05C
3EB
3F2
01D
3DB
3E9
3EE
3F8
3E2
3E0
00D
3CE
345
3E3
3FC
018
005
3F3
055
3F8
3FB
3AD
3F0
3D9
02F
02F
045
385
010
02A
01F
3EE
021
350
3DD
02E
3E7
3F7
3DC
3F0
3BE
00E
3F0
06B
010
01C
3FA
020
012
3F2
088
004
009
021
01D
3DB
008
3CA
0F9
3FA
01C
3E5
015
016
08D
3FB
3FD
3FC
01D
3DD
025
3CA
3EE
019
023
015
358
3DE
00E
004
3E9
009
3D9
3E9
3F3
047
3D9
00D
024
3C8
05B
3CC
024
038
041
020
3DD
36E
00B
39B
3F6
017
3D0
3ED
05B
3FD
3EF
02E
3FC
001
3FE
3FD
009
01E
3D5
01F
3EB
00C
3ED
018
3E3
3A5
060
011
003
3AD
3DC
021
054
023
3F9
3FF
013
3DE
003
023
3E5
3F1
3E4
028
025
3F0
3E3
00B
3E6
008
3AF
3EF
3E8
04C
012
022
02D
3E5
0A6
3B3
002
02D
060
00C
018
3A5
3EB
3B0
018
069
3EB
017
01D
3F5
3F3
36D
014
3EE
3EB
3F6
010
3EC
3FC
3F5
3EB
3ED
007
00D
01A
3C4
3E6
3D8
3F0
3CB
002
3FF
3B1
3FD
3EB
010
3DD
3E6
010
3E2
01F
016
3F0
006
030
000
023
3F5
01D
003
3C8
022
01C
015
00F
00D
01F
3F8
3DC
3EB
017
03E
073
3FD
3E3
3EB
003
38B
3F1
05A
3F5
3EF
023
018
3E7
383
3E9
006
00E
3E1
01B
3DC
3E5
3F6
01C
00F
020
01B
3F2
3D0
3AD
010
3FA
3C4
3E2
003
3D2
013
00A
019
020
01F
02F
3C9
009
01E
3DD
3D1
016
021
3FA
3DE
01B
3F4
3BE
00F
3F0
008
3F1
022
03C
002
37F
3EF
019
02F
03C
3E1
3E5
007
002
3CE
020
022
3D6
002
3FC
3F9
3FA
3D5
012
001
3FE
3FA
005
3F7
3CC
3FA
3E8
3DE
3E5
00D
3FF
3F4
3F9
3E8
3E0
3FA
3F8
3EA
016
3DB
3E0
015
3EC
3E4
02B
3B5
004
3E2
000
3C6
023
001
00A
3DB
3F0
00D
3E6
3E6
3F2
00E
3F7
016
020
01C
371
3FD
3F5
3FF
052
3E0
3F6
3D2
3EC
3AD
3DB
012
00E
00D
3C8
3EE
01E
3CA
3DC
3F5
007
004
3DF
3F8
3B8
023
3EB
010
3DD
3EC
3F1
008
3FC
01D
3DD
3E1
017
006
3FC
01A
000
3E3
003
3FC
011
3C6
3EF
3E7
015
3AC
3FC
3E7
022
01A
012
3F3
044
3F4
006
3DA
00C
010
030
052
398
03A
019
00B
01B
00A
3F8
3E3
010
3A1
3DF
3DE
3EF
000
3D7
3E5
000
3D0
3DE
008
004
3DE
000
010
3C3
012
00D
001
3DE
3E5
3F6
01D
04A
3DC
01E
3FD
3F8
007
018
00F
3F5
013
00E
3E8
014
3C2
3EA
3F3
3EE
3A6
003
006
3FF
3FA
3F0
3F3
046
013
00F
3DE
3FA
3EC
036
038
3C9
033
3DD
010
038
01F
017
022
3F1
3C3
3DC
3F0
010
01F
3A5
3DD
014
010
3F5
3ED
015
3F3
3E5
000
3AA
02C
01E
000
011
011
018
008
068
01A
3E7
3F1
3E4
3EE
3D8
3FB
3DE
3EE
00E
018
01C
3F5
3EA
01E
003
3F3
3F1
01A
01E
3F0
3D7
3F7
000
3EE
3E8
3E7
005
3EF
022
3F9
3F3
012
3FA
3ED
00D
002
010
007
3DF
025
019
00F
014
3F3
3C4
3E0
01B
3FC
3DB
3F2
022
016
3EC
3EC
3E4
041
3F5
3EB
01D
011
002
00E
3F2
000
3EA
3E0
004
3DA
006
3DE
3DE
3FD
3F9
01D
017
3F8
3F4
003
007
01C
012
023
3FE
3F8
3FB
024
00B
3E5
3ED
005
012
00D
00F
001
011
031
017
3FE
3EE
3ED
3F2
024
009
3D5
3F2
3EA
013
3E3
3FF
019
006
3F2
006
3DB
008
3E4
3FE
3E1
3DA
3FB
3F7
3F6
3E1
3E1
3FC
013
004
3E8
3E0
3F0
3F8
3E6
01B
3F5
009
3E4
003
3DD
3D9
3CA
023
3FB
3E1
018
00A
3E0
3F3
3DD
01D
3DF
00D
020
3F7
014
008
3E1
007
03A
01E
00D
3E2
018
029
3E4
00B
3D8
00B
010
3F4
024
009
001
3FE
008
3F2
003
00D
01C
017
3E6
012
3F1
3D5
01F
01E
3FD
005
029
017
3F3
3D5
3FE
012
001
01A
00E
00E
00D
3FB
00B
016
000
3E2
028
3FE
3EC
3DE
013
01E
3E4
018
3EE
3EC
3DC
02A
010
3F0
01A
011
3E3
3E0
038
04A
3F3
001
027
010
000
01C
3E0
3F2
039
00D
020
3FE
3F6
3F4
3FA
009
3DE
3E1
3E8
3ED
004
011
001
3E1
3FA
3F0
023
00A
3E2
3DD
014
3C0
3E9
01A
03F
3F0
3F1
03A
01D
3E1
3E8
3E9
3E3
3DB
010
3EE
013
3E0
01B
05C
3DE
3FE
3E7
3FF
3EA
00D
3F8
3E0
004
00A
3F6
04D
073
036
3D7
015
3E5
02D
3DD
3E0
3F6
3F3
03E
005
03E
3D4
00D
3AF
010
003
005
3F9
002
3E8
01F
00F
01C
3C6
005
3F5
3F1
3FA
3CF
004
3FC
3C6
00E
019
046
00B
012
02D
3EA
014
00C
3E6
3E4
3B5
3E9
000
3E2
3DD
3E9
052
3EE
3F0
01D
3FF
3F4
3FB
009
3F6
02D
01A
3F7
049
024
06E
3D6
3E5
3FA
041
003
3E4
3E5
3DD
05E
3EB
03C
3DC
021
38F
3EF
3E6
008
3E1
3FC
3F3
007
3E1
3FF
3F4
3F0
019
3FD
3FC
3A8
015
3DD
368
3FA
019
0A8
01D
007
3FA
3EA
020
014
00B
3EC
3DC
012
3F3
3DB
3DC
3DE
3EC
00F
3DF
015
3E1
3E5
06D
017
01C
016
3E9
015
05A
039
04C
3BB
010
004
3E7
013
008
009
001
015
3FF
047
3BE
003
3A9
018
008
04E
3DB
00F
3E2
3F5
3FC
3E1
069
00E
023
3E3
3E7
38D
3E2
3CB
033
008
3DB
042
3F1
018
029
3E7
006
3DB
3DF
3F3
3B0
3ED
001
3FB
3DC
3F0
347
00E
004
3EA
015
3FF
059
014
003
069
001
3FB
065
3FE
04E
3C6
3F2
3FF
3EC
3EB
3F9
00C
004
357
00F
3DC
029
019
005
00A
01E
078
3F3
3DA
004
3FC
015
022
046
016
3FB
3F9
3E5
368
3FB
38E
065
01B
01B
3A7
004
3DB
096
023
011
3FE
00D
3E0
00C
3C9
3F3
3F3
000
0A3
3CA
3F3
015
3F2
3E6
3EF
05C
00B
006
054
012
3E0
06A
3E3
051
3A7
01F
04E
00A
000
004
3DB
01F
3AC
3F3
3E4
028
3E1
3F6
024
01E
08A
01C
3DD
3FD
010
3F7
006
3F2
3F3
004
006
3E1
047
3EA
384
04D
3F3
3F7
36E
3EA
001
006
008
022
00A
3EC
013
3FB
3E7
002
3E1
3E4
014
02D
015
021
3EB
00E
00F
053
01B
007
3F0
3EE
022
059
3E4
0CD
36D
3F9
034
049
008
00B
3AA
000
3FE
3F1
059
00B
3E8
000
3DB
00A
3F2
024
009
3EF
016
3F6
3F1
3E4
3F8
3FD
00D
3E8
05B
005
3CA
000
017
013
37C
001
3EE
38F
3F2
3FA
3FD
019
3E6
3F4
3E8
005
00D
3F7
3C6
00B
3FC
003
3E2
00F
01E
3FE
01B
3E2
3A3
3FA
3EC
051
009
3DC
39B
3F1
01D
058
3E9
3F0
3D1
006
3E4
3FC
0B4
3CB
3E6
07C
006
3EC
3CD
012
011
3E4
3E7
005
3F9
3A0
3ED
01F
024
3F8
03F
3F7
3E9
00B
00B
013
3B4
018
00D
3C3
3E9
005
3E9
3FF
3E7
001
3B9
3F9
3FB
019
3D9
007
3DE
3E4
3FE
01C
014
3F3
3DA
022
3E4
3FB
3E4
023
021
381
3FA
3F2
009
044
3FA
008
02D
3E0
3CC
010
0A0
3B4
024
015
3E5
001
378
3F6
3EF
00B
3E6
00F
3E3
3D5
3E8
3E6
014
3E1
029
020
00B
011
00A
022
3E0
018
3FB
3E4
3E2
3F2
017
3EE
022
3F8
3D6
01C
009
012
3CE
3D3
00E
00F
013
012
014
04D
3EA
3F4
3DE
3D9
3E6
03A
060
371
3FE
014
3FC
3ED
007
3DB
016
3E2
3D6
3DD
053
002
014
3EB
3E6
00E
3A2
00C
01E
018
3F2
3EB
3E9
398
02B
009
021
3F9
02E
00A
025
021
3EF
004
00B
01F
3FD
3D9
3F8
3DD
004
3FD
013
3E9
3E9
3E3
008
014
3C0
016
3DC
3EA
021
3F6
00A
065
01A
024
3ED
3F3
3EA
059
03E
396
3DC
3DD
3FB
02E
3FB
3F6
3DE
3F8
3B5
011
06E
3FA
3FD
006
3EB
000
3D1
022
002
003
3FB
3FC
3DD
3B5
01F
3ED
008
3F2
03A
007
026
3FA
00B
01E
003
3F8
3E1
3EA
3E4
01B
007
015
3FA
3CB
3E1
020
01F
01E
3CA
01C
3DB
3E6
3E8
003
3E3
027
003
3E2
008
006
3EC
065
02F
3CF
034
00B
014
3F6
3DE
00A
027
3F8
3F6
3DD
031
005
3E2
383
3DC
3F2
02A
012
3DA
00B
3E8
3F8
3E9
3F0
03B
3FC
007
00F
010
00C
021
00A
3FF
3ED
024
007
3E3
3F5
003
002
3E6
3F3
3EA
00F
007
3F4
005
00F
029
021
01F
015
3ED
3DB
016
3FC
3DC
3E1
3E8
3FB
3DF
024
3FA
3D1
015
3E0
015
3EB
019
3ED
02D
3FA
00E
3E6
00B
032
3EC
37F
009
014
006
3F5
3E8
3DA
3FB
01B
3F3
00F
012
3DC
3FF
3F4
01A
3E1
02F
3DE
3E4
3DF
3EE
3F5
3DA
3E1
007
3E8
3EC
3FA
003
3D0
3E8
017
007
3DB
3F7
3F4
3EE
3FD
3F6
3D9
3E0
034
01E
3FB
033
000
006
011
039
015
01A
015
011
3EE
3EC
01E
018
3EC
024
010
3EF
3F2
3EC
3EB
3F2
3FC
3E7
00A
010
3DF
021
007
020
3E8
025
016
021
014
017
3FB
3F7
3E2
3FB
3FC
02C
016
3FB
001
3EA
3F7
01A
01C
002
3EC
3F1
3E6
3DB
3E8
024
3EF
003
018
011
01F
024
3EF
01D
01B
3FA
3E1
3DC
028
01C
021
023
000
014
01D
014
3DC
006
024
049
013
3FA
02A
00D
3E0
006
014
3B2
00E
3F4
3FB
013
3F9
3F0
3DD
3F8
3FB
3EE
016
001
016
3D8
000
3E7
00B
052
3EF
3EA
016
017
3F0
3FB
3EC
3E6
3EA
3F9
3E7
3DF
010
032
005
3F8
00B
012
01C
01E
3EF
00B
014
049
3EE
3F3
3D4
04B
00B
047
3ED
04F
3F1
3DD
3E7
012
008
046
002
013
000
3F7
3BD
3E0
002
3A9
3E8
3FC
3F5
3DC
022
022
3E7
023
3EE
01F
016
002
3F1
3D8
004
3F8
3FC
038
018
3EC
039
3E5
011
016
00F
3EB
3BE
3FC
3EB
3FC
01F
3BD
04B
3F7
3FD
3EA
3EC
008
3DD
3EF
3EF
06A
015
017
3F1
042
3DA
02D
3E1
02A
013
001
00B
019
020
03C
3E6
01E
02D
3E9
3DB
3E7
01E
002
3EC
01A
00C
022
3FE
3DF
3FB
030
00E
01C
007
3C7
3EF
3AE
3E3
3F0
3F6
041
004
3DA
011
019
3E8
010
00D
002
3BF
3FF
00F
3F0
023
388
01D
020
00C
011
3FF
011
3C8
3D9
002
063
3E6
3DA
02B
054
027
3FE
3F8
023
3F4
3EA
3F9
3F1
3E0
076
3E3
021
026
3E8
38E
00C
013
3B7
3E5
003
3E5
005
020
01B
3FA
028
3FA
01A
004
3D4
006
3D5
00D
004
3F0
05B
3F5
004
3F5
01C
00A
3EE
007
3FA
3B9
3CC
00A
3E9
018
3FC
389
00D
010
3E8
3F5
01C
00B
020
018
083
017
3F0
034
01A
019
00A
3EB
3FE
3AC
020
3EC
00A
00C
011
3FC
013
3E1
000
3BE
006
3F4
01D
3ED
3DA
3DA
3E8
3F0
000
3AD
3FD
3F5
3DD
002
3AF
019
3F4
3D7
3EA
00F
3F9
3DC
009
01E
011
3F7
3FB
3F8
00F
3A2
3AA
3EA
3E7
3F0
05D
38D
006
006
001
015
3F4
01E
3DE
3FB
113
3F9
00F
04E
03D
00D
032
3FC
025
34A
3FC
005
047
3DB
3DC
007
025
008
013
3DB
3F6
015
022
024
3FF
3E2
3F7
3DC
022
3C7
3A6
3DC
022
3F9
3B1
00F
3A1
3E8
3DD
3FC
3A8
3EF
3FF
0A0
005
3E8
010
3FC
009
384
3A1
01B
000
3FE
02B
027
3DC
021
00A
009
3E4
057
3DC
00A
060
017
3F2
050
017
02D
001
3E4
016
39C
3E3
010
0A7
00F
3E8
3FC
38B
03D
3DE
3EC
3E3
019
014
3E4
3FB
3DB
3F9
3F3
3FE
3ED
392
014
3F8
00B
008
3EF
38E
05C
3DD
01F
395
3F7
3DF
3A5
3F4
003
01A
007
3E3
381
3AB
01F
3F4
3E4
3E8
003
013
01B
011
00A
3EE
07B
00A
3FE
00A
3E1
01A
021
036
091
3A1
3FD
016
02F
009
00E
0A4
011
3FA
010
32F
00B
3F1
3F7
3F6
3FB
037
011
016
3E9
3F8
022
3DB
3E2
373
009
00F
3EB
0C0
012
343
05B
3E3
3F4
3DE
00D
003
329
3E8
004
011
018
3FC
3EE
3A6
022
3D9
019
3F2
3D0
00D
3E0
3F7
010
3FE
04B
3FE
00D
3E3
01F
3EB
031
3EA
04A
3AA
3EE
014
006
00D
3EA
066
021
011
3DF
3B4
397
3E8
07F
009
004
00C
3E1
3FA
00C
00C
3FE
3E9
3BC
3BC
3E4
012
3F8
079
3DC
380
057
01A
3E8
016
3F0
01C
3A6
009
00E
018
020
3DC
3BB
3BD
3EB
3DF
3F1
3C8
3D4
3E3
3E6
00E
3D8
3E3
077
020
3DF
3BE
3E2
3F5
038
3F8
394
3CE
3ED
029
03C
000
002
07D
3E4
029
016
01A
3C0
007
08A
3FA
007
3B6
017
3F5
006
00F
001
3F3
36C
024
016
3FB
01E
07A
00E
3AE
06E
010
01E
3FE
3F3
009
3C2
3E5
3F8
013
3EB
01E
3D1
3BC
3F5
3F9
3E7
3FD
3C2
019
3DF
007
3E4
3E1
048
019
3F6
3DA
00E
3DA
038
3F5
3A0
3EA
007
031
03C
3DD
00D
07B
00F
039
3EC
064
025
3FA
029
3FE
021
3CF
01C
3F7
3E8
007
3FB
3FC
39E
05A
019
013
3DB
020
3FF
3D9
072
00F
003
3EA
3FF
006
010
3E9
3E3
3FA
3E1
010
3C8
3F6
3F7
01F
010
3F8
3F6
006
01A
3F2
01F
01E
070
3DF
00B
3F6
01C
005
04C
02D
381
3F2
3FB
3FF
002
015
00D
03F
3EE
022
3E0
03E
003
3F0
3F4
016
3EE
3D7
017
3E8
3ED
3E6
3E7
3F4
369
02E
3E5
3F2
007
00C
01D
3EF
054
3EE
008
023
3F7
00E
00F
3FB
021
3EA
3F2
3F8
3C6
007
3FF
01B
005
00E
3FE
007
3E6
3DE
00B
006
3ED
3EE
3E1
03E
015
3D9
026
3DC
3B6
009
3FC
03A
021
3FA
3F5
044
3E4
076
3E2
03D
001
3F0
3A4
3FA
3E6
03E
3DD
3DE
3E5
3EC
3EF
3E2
3BC
03F
004
004
3EE
01B
01A
3FC
057
01F
3ED
3EA
3DA
007
3D7
3FF
3DA
3F7
3DE
010
3EC
038
016
011
013
3FE
006
3DE
3EB
012
01C
3E5
3F5
007
3EC
3FA
004
3EA
00B
3C2
3F5
044
3FC
019
014
3EC
01C
004
014
03D
011
004
01A
3FD
37D
3F2
3FE
3F7
3F5
3F8
00B
012
3DF
3E0
001
015
3F7
012
00B
02E
007
3FD
009
01A
3DF
00B
00D
3E8
3ED
3E0
014
3DE
3E2
3ED
3CC
3F0
3F3
3ED
3F5
02D
3F1
005
3E5
004
01B
3ED
00E
01A
3E1
3F8
3D9
01E
02F
3E3
001
020
3FC
009
00A
016
3EA
026
016
043
001
00A
020
00F
3FD
01C
3F0
3E3
00B
3E2
3EF
3DD
00E
3F0
3E7
027
3F5
007
00A
3FC
3F9
007
3B6
015
3EF
01B
018
009
3FE
023
01D
3FA
3DB
3F9
3E7
02F
3DD
011
01E
035
3E8
3E9
3DF
005
012
3EA
00F
01D
3FB
000
01D
3E4
02F
022
3F9
3E5
3F2
01A
01E
01C
3FC
3FE
3E1
011
3ED
004
02F
3DD
3EC
3F0
002
3C5
004
3F8
001
3F3
3EF
3F3
017
3F6
017
3DB
018
3E7
015
3AA
00D
3EB
3FC
00D
01E
020
3F7
3E3
002
017
00E
00B
3CC
04F
3FA
018
021
052
3F1
3F4
3E6
3F5
3F3
3E3
3BF
000
3EF
01C
3EE
009
3BE
021
3D8
061
3F1
050
3C1
01C
013
012
3F9
033
3F0
3E7
05D
00C
3E5
000
01F
3C3
3F5
00A
013
00C
01F
010
048
3D9
3DC
3F1
008
3E2
3EC
3AC
3DF
01B
3EC
01F
3EF
01E
3F1
3E8
3E2
3DE
01C
022
3B5
000
01E
010
00B
010
01B
3F1
022
3EF
3F7
3E1
390
000
3ED
066
3ED
00B
3BE
3EE
005
047
004
063
3C0
01D
3F4
013
002
031
016
3E6
057
010
02D
01B
007
3D6
3F6
01B
3FA
01D
000
01E
014
3B2
3E9
3EA
3E6
3DE
3DE
3B4
3EB
004
3EA
00D
001
3DF
000
00D
3D9
3E9
3E9
3ED
39D
3F7
3E0
00D
3E0
3D4
3D4
3E1
3FB
3F8
020
3FA
3E5
000
3ED
05B
005
00C
3FA
026
3EE
02D
005
048
386
016
3F0
01B
3F9
02E
01D
003
01C
00B
3F2
3E6
00D
3CF
3F3
3E1
006
009
3DD
002
3D9
3B2
3F8
3F0
3EE
3A9
3FA
3DD
002
003
3F0
3F1
3F8
3F2
3E2
3F6
01E
3FD
3F4
3F9
3C7
3EA
3E9
3F3
3EC
3EE
376
3F1
3F6
3FE
3EE
3FC
37F
3ED
01A
06B
013
01B
3FE
01F
00B
004
009
03E
37D
01A
005
016
019
030
005
3F5
3E3
3E6
3EA
3F4
3EA
3F3
008
01B
3DF
008
3EA
3DC
391
3BE
01C
003
3E0
3A0
013
002
3E1
001
3E1
3D3
00B
3EB
00D
3F1
01B
3DB
3E0
013
395
3F6
3DF
3D7
010
01F
3B5
3E4
3FF
019
3FD
3DC
3C8
3F1
3F8
042
3E3
01A
3F4
034
3F9
028
3F7
012
36E
001
3DA
01D
3F3
015
001
3D4
3F3
010
3F1
00D
010
3D3
011
3E9
3E2
01F
3F9
3DB
385
38F
3F7
006
3E7
378
00A
094
3CC
004
006
3F6
3DF
00C
0D4
017
017
01F
00E
002
380
3F6
3E5
3D5
3E4
032
010
3EF
3E8
013
3F4
00C
000
3FA
007
004
3FB
022
00F
085
043
034
005
001
31A
3FF
3E1
3FD
3E1
3F4
01C
3C9
035
3FE
3BB
3FE
015
38C
3E3
003
3E2
3E7
015
3F3
37A
362
3EE
3E2
007
07A
3DF
032
3B9
00B
009
017
3FE
006
35F
3E8
008
3DA
006
3EC
39C
389
3E4
00A
3E1
062
008
3FE
3E2
3FC
01F
020
3FE
3F5
006
013
3F5
3EC
00E
022
07D
009
006
021
3F7
3EE
3FE
0B7
01A
375
004
399
3DF
011
3CE
3F5
005
3A1
3F8
014
3FE
3E3
3FF
00B
3C6
3CA
000
00D
3E3
053
00E
003
3E6
016
01D
010
3E6
00F
376
3E9
3F0
3F5
3E1
011
008
3C6
3E6
014
004
3C9
3EA
01F
3F3
3E2
3EE
000
37F
005
00D
024
013
00E
3EB
028
028
3C4
000
026
00F
3E4
3E0
0BF
3F8
3A9
3F0
344
3C4
020
01B
3E0
3FC
3B6
3EC
00A
3F8
3FC
3E3
3F7
3D7
04F
018
003
010
043
00F
01E
02A
3F2
00F
011
015
3D8
3D3
3ED
3F1
003
3E9
3ED
00B
3ED
3E6
008
3DE
3F5
3D2
022
3FA
013
004
3FE
3A4
006
3FF
3DC
3F1
001
3DA
031
387
3C4
002
02A
01C
3FC
3E9
08A
3E8
010
00C
367
01A
3DD
06C
3E7
021
000
00C
3FE
009
016
3DA
3DB
3E4
050
00F
01B
012
3F6
3DB
030
03F
3FC
3ED
3F0
3E9
3ED
3F9
011
3FB
018
3F5
015
043
047
3E9
00A
01D
3FC
3D1
3F4
3F9
015
00A
006
37B
017
007
3F9
3F4
016
3D5
3DB
3BD
3A8
002
044
3F2
3F3
000
082
009
045
3E2
352
02C
018
3F6
00F
3DE
009
013
016
021
3F0
3DB
013
3DF
029
01F
009
00C
032
3F4
01B
049
006
009
018
004
3DC
3E4
3E4
01C
01B
3ED
3EF
00D
051
00C
021
015
031
3C3
022
003
011
01F
003
3A5
019
3F3
3F7
3F6
3FD
3DC
3DF
3CF
3D3
009
021
3C2
3F8
015
0A4
3DB
074
018
399
049
3E7
009
3E4
001
01C
3F8
016
3DC
00B
3E3
3FD
3C2
031
3F4
3E7
01D
065
007
010
034
00F
3E0
019
3EE
3F8
3B9
000
005
3E1
3E4
00F
00B
03B
015
3F5
3F8
02F
3E8
3FF
00E
3E6
3D9
01D
3B2
021
3EB
3EC
3FF
015
3D7
3FC
3EB
001
3E1
000
3EC
3E7
3FB
076
018
07B
024
3D0
3FE
3FD
3F4
021
3F6
035
3F5
3ED
3ED
3F0
004
016
3CD
004
017
3DB
006
010
3E3
3FF
035
019
3DC
002
3F2
01E
3A1
3F6
014
3F8
012
3F8
023
01C
010
003
001
061
017
021
3EA
3EF
017
01F
3DC
008
3E3
3F6
3EF
3E7
3DE
3B6
013
040
008
001
3D0
010
008
04B
00E
074
3DE
014
030
001
3D6
01F
3F4
3DC
3FF
3E8
3FA
3E6
3FD
002
3FC
01D
01E
00E
3F8
052
00B
3F9
01D
020
3EA
3FB
01C
00E
3CA
000
016
003
002
3FC
000
00F
00E
020
3F6
03A
3D4
3E4
3FB
003
010
3FD
3FA
3F9
3E1
3D8
014
3F6
3E8
3D6
004
3DF
013
3EA
00A
017
015
001
008
04D
3E8
012
017
3E5
3ED
3E1
3FE
00A
3E2
008
3D9
3F9
001
3F4
002
3EB
001
3DB
008
003
3E0
3DE
3E2
3EC
017
3DE
3FE
3EF
3E2
009
3DD
3FA
00B
3FA
3FC
044
3FA
017
3ED
3F1
023
020
01C
3EA
00A
3EF
3D6
012
004
3EB
3F9
01F
027
005
3F1
024
3DD
3D2
02E
00A
00E
004
3EA
019
3DD
3EA
032
011
02A
017
007
3ED
3E6
00A
3E3
3ED
020
005
000
3EC
3EE
3E7
00C
00C
3F7
3EB
389
005
3F3
3E0
00C
3E1
002
00A
3F4
01D
022
3E0
008
055
3E9
00A
002
017
015
012
3DF
022
3F4
009
3DE
3FF
3FA
3F1
013
3F4
3D4
3F1
00D
01E
00B
030
3C7
013
3F3
02B
3FF
009
019
3E3
045
3F2
00D
00B
3F3
3D0
000
3ED
014
018
3EC
008
03A
3EC
3E8
011
006
3C0
3FE
3DF
3C5
01B
3F2
3D6
3E1
3E4
00F
3E8
015
000
3DD
014
013
043
018
00B
013
017
01C
3F1
3F5
3E8
3EA
00B
392
3F7
00A
3F4
3EF
006
3B5
3DF
00D
3E0
018
038
3D7
022
3EC
025
3E2
01D
3F0
01D
06A
3DD
035
006
3E9
3D5
3FD
000
01C
01D
3E4
3E1
037
3BD
3E8
3E6
3F5
3E8
022
3C7
3B8
3DA
3E6
3E9
021
3F8
3E3
00A
01D
3EC
3D9
3E7
012
3FC
3E4
013
013
052
3C3
3FD
3FA
021
3D9
3F7
382
007
003
3E1
008
003
3B3
3F6
027
008
3F6
034
37A
01E
017
01F
3DE
3DD
005
3EC
01A
020
045
005
022
00D
3DF
3DC
3E9
007
3F6
3E5
027
39B
00B
013
3F2
3B7
3E6
3F1
3E7
3FC
018
3F2
3FD
009
3ED
005
001
017
019
010
027
01E
01E
3FF
3F0
02F
3B0
00D
3E3
3E7
016
3F1
38A
3DB
004
3EA
3DC
001
3AF
012
002
000
3EB
087
37E
008
3F4
038
023
3DC
018
3E2
3FC
3DE
034
3F3
3DF
023
3EF
000
3FE
3F6
022
01F
3EB
368
007
00E
013
3BE
3F1
3F6
024
015
006
3F5
019
3FB
074
3F0
3EC
3DE
3DF
3DE
02B
026
021
3E9
01A
3CE
3E4
3EB
3E4
3E9
010
018
3D7
3FE
3E5
372
022
009
3BB
06E
006
017
01F
084
387
3E1
01E
008
023
3FC
011
3CA
037
017
009
021
3EC
3DC
3E1
3F6
3F3
3FD
01E
3FA
3A7
388
012
3F6
3FF
3B5
009
07E
023
3F5
005
02A
004
011
061
3F4
3FF
01D
3EC
3E9
047
04C
020
3D7
3E4
016
3EA
3FA
3DC
3FE
019
024
04A
3F4
3FC
3A9
3E2
01E
33C
018
052
01B
010
0A1
3B4
00F
00E
38E
017
3E7
022
3D0
047
002
3F4
005
013
399
3E0
019
3FE
00A
3DB
3FC
3AE
3EA
3F3
018
014
06E
3FC
058
3A9
00B
015
02A
018
012
389
002
012
019
005
3EC
054
068
3E9
010
3E2
04F
001
013
3F3
01A
3F8
006
3E4
005
3EC
008
01C
3FC
353
019
070
002
3F2
092
3A1
00D
3EA
390
3FC
3BD
00B
3E9
01E
3EB
019
007
3FD
3C7
3F2
3E3
3E4
00D
017
004
3AD
0A2
018
3EC
000
084
3FC
044
3AF
3E6
01B
01D
019
011
3B1
01F
3DB
001
01A
3EB
066
03B
020
3E7
3DC
001
3F5
3E1
01B
000
002
3FB
340
3E1
019
025
00F
3DE
3A4
04C
009
3F1
3F4
08E
3DE
3E9
3E1
01C
015
37E
3E2
3CF
3DE
3FF
008
003
3EB
3C2
021
3F7
3E5
3EB
3F5
3E8
027
03D
3E3
3E5
006
05A
002
045
3D5
3E1
01B
020
3F6
00E
3DE
013
01D
002
3E7
014
089
059
3E7
3DB
3FE
3F0
3E7
012
3DB
008
3E2
3F4
33B
023
3EC
3FD
00E
019
3A3
056
3C6
018
3F6
031
013
005
3DD
03A
3F6
3A0
019
392
3EF
3FF
3E9
3EA
3EA
3E4
009
020
01A
3EC
3E0
01A
037
00B
3E0
018
012
050
003
021
3D4
3E8
024
001
017
016
010
3E1
3EA
3FB
015
019
072
066
3DE
3D9
3F6
3EF
3EA
3DA
3F8
022
3E2
01E
333
3F7
3E5
3F1
3DA
00E
3BD
01D
3F6
3F5
3ED
01B
027
3E9
3F1
061
012
3E0
01B
3A8
03C
01C
3DB
01B
004
3FB
010
003
3F7
3F6
3EA
00A
035
3F3
01D
002
017
045
01E
3F6
3D4
3F1
3DB
011
3F2
3FF
014
000
3DC
011
3F9
014
047
05E
007
3F4
01F
015
00C
3E2
002
3E1
010
3EA
363
3F2
001
008
3EB
01A
3C5
00B
3FA
3E7
3F0
3E6
00C
01B
3F7
049
00F
3FA
3F8
397
034
008
03F
010
3E1
003
024
007
01C
3EA
017
3F7
015
3E8
3F5
3F8
3DD
040
012
3F8
026
016
3FD
3ED
3DB
00F
3FB
022
3F3
3FD
019
01C
051
063
3E5
3F5
01B
3F2
02A
00A
3F4
3EB
3E4
3FD
3BA
3F0
3F1
01D
00F
3E5
3B3
019
3EC
3CB
013
3EF
3EB
01D
3F7
028
002
050
3F8
3CB
02A
3EA
035
00A
00C
3F6
018
3FA
3FD
3FD
3F1
3EF
3E6
3EB
000
017
014
056
3FF
029
01C
3E2
3E6
3EC
008
3E3
019
021
000
3F3
3F8
3FA
04B
033
00C
3F3
3FB
00E
005
3E0
3E0
3F0
3F2
3FD
3C2
3E3
013
3B6
3FC
3F9
39B
3D3
010
3F6
015
3DF
3F4
3DE
01C
014
015
042
01E
00E
018
022
007
01E
3F8
030
004
3DD
00A
3E8
3EB
013
03E
010
00B
01E
3E5
042
3F7
033
3FB
012
023
003
021
3DD
001
3FD
01F
014
3FC
3E2
01F
01B
3F3
3FC
3EF
034
00F
021
3DB
3FD
3F3
3E0
3F3
004
008
3D4
3E6
3E2
3C2
3D1
023
008
3FE
3CC
3EE
021
015
3EF
011
02D
3F4
3F4
020
3DC
013
3DE
3E8
3D8
3EB
3E5
3FD
3E5
3F7
3EB
02D
3DC
01B
005
3F8
02F
3DA
018
3F4
3E2
3EF
3E7
004
3DB
008
01B
3E4
00D
00E
01F
024
01D
3E2
3EB
004
012
035
016
3FE
00D
01C
3DF
3F8
3FE
3DE
3F3
017
00E
001
3FE
005
008
3E6
3D2
039
3FE
3E5
00B
3FE
3E5
3F8
3DF
3D0
01B
042
3E8
3DC
024
01C
3DB
005
01B
011
002
022
02D
000
003
3E4
3F1
3DD
3D4
3B6
010
3E8
3FC
00B
3E1
3FE
000
3F4
3F3
3E7
3DC
020
036
004
01F
015
3F1
00F
3FD
3EE
017
008
002
3C7
3F0
3E7
3F2
3DC
3F9
3F4
010
3EE
032
009
3D3
004
009
3E7
013
002
3E8
3ED
3D8
005
023
00E
016
01E
008
3FC
3FB
3FE
3F8
008
006
01A
3F7
01C
016
007
3DC
011
00D
3BF
3F6
3EA
3C1
3DB
00F
3F7
3FF
3EE
005
014
00F
030
02C
3F2
007
3E8
3BE
02D
005
01E
003
017
3F1
008
3DA
3FD
02B
3F4
008
3FF
3DE
035
3EA
01A
3E5
012
3F8
01B
021
3ED
3C9
3ED
004
02A
00E
043
3F0
022
036
018
3F0
001
01C
007
3F5
037
3D6
00F
3FA
3FF
3AD
005
3F0
38B
3FA
3F3
3D2
020
00D
00A
023
00B
3DE
3E4
00D
028
037
006
3F6
007
3DD
3E9
006
3FE
019
016
3E8
3E7
002
3F2
01C
3E8
00B
3F8
008
3EF
3D8
3E4
3BE
006
3DF
00A
3F7
00A
3AB
3EB
01B
00C
024
03B
3FA
00C
052
3F4
3F4
3E7
017
004
3F6
081
3BB
3DF
00D
3EF
38C
3F3
01D
3CD
3DA
3FC
3E7
018
01F
035
3DC
00E
018
019
014
030
021
3E5
3EA
00E
001
3B8
008
007
010
00A
022
047
021
3F3
3BD
3DF
01D
3C7
3EB
3DC
01B
01F
39A
3D6
3E3
3EB
007
3FE
3C0
01B
009
000
005
029
3F1
3E7
038
011
016
022
009
004
010
036
37D
01A
3DF
005
380
021
01E
3F5
00C
3F1
3F7
001
3DD
06F
014
3E0
008
3F8
3F2
048
02D
3E6
3FE
3DB
3C6
3FA
01E
3FE
00E
016
3F2
076
00E
018
36D
000
3F4
3CF
3F1
025
00D
00F
379
3FB
3E9
011
3E0
3E1
3B8
021
3E7
020
3FA
001
3F1
3E6
007
3E7
3E6
00D
01B
01A
3E3
004
3B3
00D
3E9
3DA
3D0
005
06E
3F0
00F
022
00A
014
015
00D
010
3F5
3F5
016
3E1
02C
012
020
019
007
3C7
00F
3F6
018
00C
3FE
3E7
065
3F1
007
3BE
3DD
00E
3AA
3F5
03C
3D6
3E9
351
3DF
017
006
3DA
00B
3EC
005
007
03E
00E
3D7
3F8
022
3F4
01B
3DC
007
3DC
022
3ED
38A
0B3
00B
3E1
000
073
3F8
040
3BF
3DE
014
3D9
00E
01D
3AE
004
3E0
3F0
004
3DD
047
3C2
3EC
018
3FF
01A
3DA
3E4
3F2
002
3FC
011
06C
003
3FD
019
3E5
3EA
3CC
3ED
015
3EB
022
368
3D1
004
3DB
354
3F2
013
00A
006
00E
3F8
01C
3E4
3E6
031
3DC
020
3EA
01A
008
006
372
069
3E3
3ED
003
065
00D
027
3A4
3FD
3EE
3D0
3E0
3DB
3A9
000
008
019
00D
3F0
02A
002
016
3DD
00D
3FB
004
3DB
3EB
3EA
3F9
3DB
062
005
3DB
01E
3EF
3FE
3F5
04B
3F0
3F0
018
352
3C7
3DF
3DE
3BC
01C
3E9
3F5
038
3F1
006
013
023
3FC
027
007
3FF
006
00C
011
3FB
3E4
045
3F7
3E0
3F3
01E
3F4
030
37E
01C
3FB
3AE
01E
003
3D1
007
3F4
019
3FB
000
3F6
026
01B
3FC
024
3F2
004
3E5
3E5
00E
00F
3E2
3E0
00C
3F8
05E
00F
3E2
015
029
00C
3E9
01E
367
011
011
3F2
3A3
3EF
3AA
002
3FB
3E0
00A
002
012
00B
015
01E
003
3E3
01F
01D
020
3F8
000
3E3
00E
3DA
035
3F2
005
38F
3E8
3FA
3DB
3E4
3F9
011
3E1
00A
006
01C
012
017
048
3E9
008
3E6
3A8
024
3E0
3E2
013
010
3DD
3C9
002
022
01A
011
01A
3C5
00C
3C3
012
3EB
38A
027
3DE
002
3CA
3F5
393
020
015
00D
00B
01B
3FE
023
00E
007
3F6
3F2
3FC
017
011
002
019
3E4
3FC
3E3
03E
004
3F7
3C0
00D
3F0
3DB
002
3F7
005
00A
3E0
01A
022
01D
030
021
00A
000
3F0
3A1
02A
007
3FB
3E4
3D8
3FA
3B2
3FB
00A
041
010
3DB
3EA
02C
003
3ED
015
386
038
01D
3E6
001
3F1
007
011
3F6
014
01B
05A
00B
017
3FA
01A
3FB
005
00A
3FE
016
026
3F5
3EF
012
3D8
033
013
003
3CB
00B
016
3D3
019
010
01F
01E
012
008
006
3EE
040
033
3DF
017
3E7
3AC
3F8
3F9
010
005
010
001
3E1
009
3F1
01D
017
016
3C8
3F0
019
3FB
015
3C7
003
3F5
3E9
3DB
3E8
011
00D
3ED
3FF
3FF
026
022
00C
04A
00E
3ED
012
3FF
3DD
01B
3EB
3E4
3F1
3EB
3E7
03D
3E2
01F
015
020
022
3F5
00A
016
02F
023
3DF
3E9
00B
023
057
03A
3F0
020
3F0
000
028
3F5
3E2
009
014
3FF
00C
3E6
3EA
3E9
020
00B
3CC
3F4
3F4
01D
021
3D9
3DD
00A
3F0
3E8
3F6
033
00D
025
028
3F7
000
3ED
013
05E
3E4
016
00C
3EC
018
015
01B
3F7
007
010
3DB
036
01A
3E3
001
3F5
015
011
3FE
00A
01D
009
3EE
3E2
3ED
022
018
024
001
00B
009
00D
01B
3E0
3FC
01F
01D
019
02B
3FB
3F2
3E9
013
00C
3DC
3DD
036
3ED
007
3BA
3EA
006
002
3F2
00F
3E3
3E7
006
016
01C
033
3F1
003
00B
3EC
3E1
003
3E2
00B
019
010
3D1
3EC
00C
3F0
032
007
008
3F1
3E0
3DC
001
000
3F4
3E9
00C
017
3FB
3E1
3DB
01C
00D
3F7
3EC
3E4
011
035
019
00B
3E0
01B
3FC
014
012
3E6
00E
3E3
3EA
01A
3E2
009
3D5
016
3E4
02B
3DE
010
003
00F
012
3EF
3F7
004
019
01F
3EA
3DF
029
3E6
3FD
018
00C
01C
020
01D
3FB
021
3E3
015
3F1
3EA
00B
014
3D7
01B
3BF
3DE
003
3FB
3F2
3E6
001
3F3
3E5
3ED
021
3DF
3E7
00E
3F0
048
00F
3E8
3DF
00A
01E
00B
01C
00D
02F
009
020
3F9
3F0
039
3EF
004
3F0
3CB
3E1
011
3D3
010
3C7
3FD
3C9
3E3
01B
010
01A
3F1
01B
3F8
009
01D
016
010
3EF
04F
00A
012
3E6
3F6
3B7
3E4
019
3D3
3DC
007
3BA
3E5
019
3E7
000
003
011
3E1
3DF
3E8
013
3EF
3E3
006
3C8
00E
020
3F0
3F5
01D
3EA
3F1
3E5
3EC
3FF
3F2
3F9
012
3DB
029
00A
3EC
3E9
3F6
3EB
008
3F3
00D
3EF
3DC
3EE
3D6
008
00B
3F2
3E3
01E
008
01A
3FB
010
3F1
019
02B
3D5
00C
3E3
3F3
3BB
01B
3F3
3EB
3E1
3EF
3BB
00C
3EB
3FA
3F5
011
3F4
3EC
011
3B3
057
3FC
00D
024
38B
01B
3F8
3EB
017
3EF
3DD
3F4
01F
01A
005
00A
3DA
013
3DC
000
026
3ED
3B1
050
3DD
3F7
031
3F8
3DB
3DB
3E0
3DC
3FA
011
3DF
3FF
012
018
003
01E
016
3FE
007
01B
3C4
004
011
013
381
009
02D
3E1
3FE
3E4
3C0
01B
3F5
00F
3FC
3F9
00D
003
005
39D
050
023
3FB
019
361
3D8
3E3
3EE
021
01C
3E2
035
3FC
021
3AB
3E1
3E6
003
3EC
02A
3CE
3EF
37D
05E
002
020
014
3E9
3AA
3FF
3E3
3C5
012
02C
021
3DE
3FA
018
00B
3EF
019
3DC
3E7
3EE
399
3E7
011
00B
354
3DF
082
013
001
3E1
002
01C
011
03D
00B
012
3DB
3F8
3DE
38D
024
000
3E7
008
3DA
023
00B
3F2
00D
3DB
021
046
023
3F9
3B3
3DE
002
019
003
02F
3EC
00A
37F
04D
3E9
001
3EE
3E5
02F
3E3
015
02A
3E1
3D8
012
015
3D1
3E9
3E6
3DB
3F6
3E8
3E8
3DA
052
020
00F
019
3BE
019
061
3DA
004
3EA
012
3E2
002
3EC
3F2
014
3E8
01C
01D
3AB
010
003
010
3E8
3B4
01D
009
015
3FA
007
014
024
3EE
3DD
010
3EC
3FB
021
3FA
020
3B8
3F8
38E
034
022
01F
3C0
01E
024
008
3D6
068
024
3E3
3F6
01E
3DE
005
01D
014
01E
010
3F9
3B6
078
3ED
002
013
3CE
00D
053
3C2
3DC
3DD
004
014
00D
3F1
016
3FA
3DD
3FC
021
3CB
3FB
021
023
3F0
3F2
3E5
3E8
3DB
008
3E3
3F0
009
3E4
00C
004
3F8
3DC
028
00D
01D
3F3
3F4
3A1
3D8
3ED
3EE
3AF
3E7
001
3F4
3CF
038
3F3
012
00A
017
3F3
011
005
00E
00A
3E3
010
3AF
050
3F5
022
01A
012
00F
022
3FF
005
00B
3EB
01F
01C
3E6
3FD
002
3FD
3F7
017
3D1
00A
3F9
3E7
3F9
3FA
002
005
018
021
016
023
008
3FF
019
01A
021
3FF
026
008
3EA
3E5
00E
3AA
3CF
01F
020
3C5
3ED
3F7
01B
3F0
021
3E3
01E
3DC
004
3CC
000
3DD
3FB
019
3FD
01D
396
070
3FE
017
018
029
00C
3F1
3C8
017
3F1
3DC
3E3
01C
3D9
01F
00E
3F4
012
016
3D9
024
00D
3E5
01F
3B1
013
008
002
019
3F7
015
3D3
011
00D
023
021
010
017
015
3F7
3EC
3E7
3D0
022
3FE
3F6
3D7
00D
3DC
017
3F8
020
00D
049
000
3F9
3F8
023
011
019
3FF
3E1
01E
3D6
03C
020
3F7
3ED
042
3F3
3F2
3CE
000
3FA
3A9
3DB
004
035
3FD
013
3EC
3F0
012
000
3FE
01C
3DE
3E4
37C
00B
3DD
3F4
3E8
3F8
018
3F8
011
3E0
036
018
3F9
3FE
013
3EE
3FE
3F1
3C1
034
3F6
3EB
3CF
021
3B2
00A
023
3F9
3EE
023
018
3DD
3F2
3FC
3F3
3FB
010
3E1
3E2
3E1
02D
004
005
3DA
3E2
3F1
3FA
3D7
01B
3DB
3D1
00F
001
030
00F
00E
3E4
01D
3FB
3C4
00C
015
021
020
3B6
00E
3DD
3E9
00A
019
019
007
012
021
038
3DF
3FD
3CC
023
3EE
01C
020
005
039
007
3DF
3BD
3FD
3DE
017
01C
00C
3E2
039
001
3E0
016
000
023
022
021
010
019
00E
3F2
022
023
021
3F5
3F1
01B
3EF
3F0
022
3EF
3FB
016
021
01B
3FF
023
023
022
3E6
3F1
004
010
00D
3B8
017
01C
00F
3DB
3D9
022
3EB
00F
01C
02A
016
00C
002
000
3F7
3FE
3DB
3C2
032
3E7
01A
3D4
3E9
3E4
3F3
032
000
3F1
02E
01C
021
02D
01E
3D9
3F0
3DD
012
3F2
019
019
3EC
012
3E2
018
3F5
3F9
033
3F4
01F
3F4
002
3DD
022
3F0
007
3DF
3EF
3EC
02F
3FA
006
00B
3FE
3DC
023
3DC
01B
3E3
3FA
020
3F4
00C
3DE
3F2
3F3
3EE
008
3B5
010
004
015
3B7
3F3
3F1
01A
3D9
3F2
3D8
3FE
019
3CD
3FC
3EC
3F2
01D
06D
00D
3F5
01D
3F5
01C
3DD
027
02A
3DC
3FF
000
3F8
013
3EC
3FF
014
001
3CF
3F9
3EB
015
3F2
3F2
01B
019
3DF
3EC
01B
006
3F9
002
00A
3F7
3FC
01C
3FC
3DB
3E6
3FA
002
003
3F3
022
3E6
3D9
002
010
002
3F1
3EE
3EF
3EC
00A
3F2
3E0
3FF
003
3F6
010
016
00E
3E9
3F7
3E2
3F1
01F
018
3F2
00D
3E4
002
008
007
00A
3E4
009
3E3
020
3C0
00E
01E
3D6
3DA
003
002
01E
3DD
013
00A
001
015
025
003
3F7
001
3E9
3DC
3DA
3F9
01A
014
3F1
00C
00B
3DE
3FE
015
3EC
3F8
3F4
3F9
3E0
3E7
3E7
3FF
023
00B
3FE
3F4
3D4
3F0
028
3FD
3F6
016
3E2
016
037
00C
019
3F4
3F1
000
3FC
013
002
01C
3DE
015
3BD
3E7
006
3E7
009
3F3
3CC
3E1
3D8
3FC
012
3F7
002
3E4
01D
3F8
03E
3EA
011
3DC
3DF
02A
01D
3F4
3F2
3DA
3EA
3E2
00E
000
00E
020
3DE
022
004
00B
02B
01F
3EF
3C2
008
3DB
005
3F9
3E3
01F
010
3C9
3E0
032
000
3E2
025
01D
01C
00C
008
001
3E8
002
3EF
001
3F5
000
3C0
3FF
023
3D5
005
006
3EC
3F6
3FE
3FA
3F8
005
3DD
3DF
3ED
3E3
025
3F5
023
00B
3D8
028
3E9
3E9
3E9
3EF
012
3FB
014
3ED
029
00A
015
3F2
009
011
015
011
3E5
3B4
3F4
3F2
3D2
3FF
3FD
005
026
3E3
3E7
042
3E3
016
01E
00E
3EA
011
3E5
3E6
3F9
00D
3F4
01B
009
3DA
3CB
3F1
00B
3DC
3F6
3F4
3E0
3F2
017
3EB
3E2
3F0
3FB
000
3F0
3E1
3EB
3DE
3DC
3FC
3AE
3F3
3DD
00B
3E5
3FE
004
017
3E7
3EB
002
017
008
3EC
01A
010
3FD
006
3D4
03A
3F2
005
3E9
004
3BD
3DE
004
3B0
3DE
01D
3DD
005
01B
3F8
006
022
3F3
00D
3EB
014
3D1
006
3DF
020
3A5
3DE
05E
01B
3ED
3F3
3F5
3DA
3F2
3FE
3FD
3E8
003
002
3EA
00B
3FD
3F3
017
3E9
39E
3F9
3DC
3E5
00A
01C
015
3F6
3DD
3DF
3F7
00D
3F0
001
025
01B
008
00E
3E0
3F1
3E4
009
3F5
01C
3EE
00D
3CD
3D5
00A
02E
3DB
3E5
00C
3FA
012
009
3DE
3F6
008
3F2
00E
008
023
3ED
3A5
3E7
041
02A
3DE
3DB
02E
3E7
3DE
3FC
011
3F7
00C
3F2
00D
3F0
3F4
013
00D
3FE
3D8
016
3F3
3F8
3F3
00A
3E7
3E7
3DE
3EC
3F7
00A
3F5
000
028
003
3BB
3F9
3D3
00E
020
00C
3CA
3E3
00C
01C
3CB
3FD
3F5
3F9
3F1
00B
011
012
3DF
000
3FD
3EF
3F3
3CB
02B
020
3EA
3EE
3BA
021
043
020
021
3F1
00A
3F5
3DF
022
3FF
3E2
3FE
014
3E0
004
01A
3F8
00F
3E5
008
00C
3FF
01A
3FD
00F
004
3DB
3F4
3ED
041
3FB
3E0
007
02D
012
3E0
3E9
3B2
3CF
023
3F6
3BD
023
066
3E8
3C1
035
008
3E0
3DF
00A
014
3FB
01E
00C
3E8
017
3FB
3D1
065
006
3E2
01C
3DA
019
040
00A
3E3
3E9
008
00A
017
3D4
3EA
3F8
013
00C
3E4
00A
3E2
3F2
3FE
013
3CE
006
3E2
000
00B
004
012
3E1
3E1
010
00A
00A
3DC
029
065
014
002
3E1
3D7
018
3F0
003
3F3
3E0
3F7
3E0
3C5
003
3FD
012
3F7
001
3CB
3EB
01B
3EC
004
3DC
3FC
3DA
02F
3E8
3E3
01F
3F8
3F9
02D
3EA
011
3FC
005
021
3D9
3C8
3E8
000
3F2
3F2
002
3EB
3C4
3FA
3EA
3E6
3F1
005
003
011
01F
3F8
014
3FF
003
3FE
3F1
020
000
3FA
037
3FB
00C
3F0
3D0
004
010
3F0
3C4
3E5
3F3
3F1
3C9
3E9
020
02A
3F6
3E5
006
3F4
000
3F4
3EA
3E3
3EC
002
01E
008
004
001
02F
010
01B
3E4
01F
3E6
009
3F1
005
01B
00C
023
006
3F6
3FB
3EA
3D5
3F1
00D
3DC
3CC
3F5
003
3EF
3DA
3FE
3F3
3F6
004
01B
017
3F7
3F8
3EA
010
3F4
004
020
3C9
3F4
01E
3E3
3D5
014
019
00F
3D7
3FB
3ED
02C
004
3E8
033
01F
021
006
3EA
3ED
3FC
3FB
049
012
3EF
010
3F4
3DB
02B
3FF
3F6
017
3E9
010
011
009
3EA
3EF
021
3E1
00D
3ED
007
3F5
3F9
3FE
3A1
01A
3F6
3E1
3F1
3F1
00A
00D
01C
01B
033
3EB
017
3DF
02E
3D2
00C
3FB
3E3
000
012
003
3C4
3F3
3CD
3F1
3DC
3E4
3FC
035
012
002
005
001
3DD
3F1
022
3DE
3FE
3F3
04D
3E4
3E5
021
3FE
3EF
3FD
3FB
013
3E2
3CA
01B
3F8
02D
3DC
01E
022
3E5
023
3EE
004
020
009
004
3C6
3F7
3EE
3DC
022
3F6
3EF
002
002
016
024
3F7
3FE
3FE
01F
3DF
01D
3EC
3E6
01A
012
3F0
3B7
007
3F7
014
00C
3D9
011
037
3DD
3F1
3E9
021
3E4
3FD
011
3E9
3FE
001
012
3F3
011
00F
00A
3F6
02B
017
3ED
023
3DE
3EE
3F6
02F
003
01A
3E9
3FA
3E9
013
00D
01E
3FF
3F2
3CD
020
3ED
3E4
00D
3EE
3E9
3F6
3E5
3F0
005
002
3EE
009
01B
3E0
01B
3DD
3F5
022
3F2
3F1
3CD
3EA
000
01E
034
003
00A
025
003
3DD
045
005
3DC
003
3F7
018
015
027
025
3FC
021
3EF
3F7
3E6
017
00E
3E1
3DD
3E0
3F2
00D
3E6
3EE
3E2
3E9
01F
3F7
3F4
3F6
017
3FF
021
3C3
03C
01B
3DC
3DF
015
3F8
009
01C
00F
012
3DE
012
3EB
009
02F
03E
010
3FE
3F4
3EA
00D
3C7
023
011
018
008
008
3DF
002
007
3FA
033
3E3
3DD
020
00B
023
3E0
021
3EA
3F1
3DB
01E
3FF
009
3F2
3FD
3ED
3ED
3CF
003
021
009
023
015
020
3E4
01D
013
01D
3F7
3E2
3F9
3FE
013
3DF
3F2
3EC
013
3F8
00A
008
023
3F2
01B
016
3EA
00F
00F
3F3
3DE
00A
3FE
3FE
3E4
005
006
002
00B
3E6
026
00E
00E
022
3EE
3FE
016
005
3EE
3FA
3DB
003
029
3D4
00E
3E9
3FF
3CE
01C
3FE
015
3DE
005
3F9
3EE
004
00A
3F6
3FF
011
00C
3FE
3DD
013
01A
3F4
3E6
3F3
3FC
000
012
007
3DB
3FC
00A
011
012
3FD
019
3ED
016
042
00C
3DA
3EC
3DD
028
001
3EA
3DA
010
00E
3F2
00A
3CE
3E9
037
00B
3DC
010
3FF
3F7
01C
00D
3EB
3E0
3F9
00F
3E2
021
00C
028
003
3FF
003
018
3ED
3FA
007
3DD
3D4
3DB
003
012
010
01A
3E9
02D
3F5
00C
3DB
3F1
040
01D
023
3E8
3DF
013
3E6
3E0
022
02D
3E9
3E9
00E
3FF
03A
03C
00C
03B
3C4
3E3
3EF
3D9
009
00E
008
034
3F4
001
023
3DD
3E7
02B
3F3
3E4
3E1
3EB
016
023
015
3F5
3F5
018
3DB
3D0
3F4
00D
3F3
3D9
3EC
3EC
004
020
00D
3E8
00B
000
019
3F5
3E5
046
3FF
3EB
012
3F0
3F5
3DE
00F
3E3
3FF
022
005
3F6
3FC
018
3ED
3F1
3F3
001
03C
015
017
3F3
3FF
018
3EE
3D5
3FF
3D4
3F6
022
3CF
3F9
032
01F
3E3
01B
3E0
00A
3E2
00A
3E4
3E8
04E
006
013
010
010
3DD
01B
01E
010
3F6
012
007
020
005
3DA
018
3EC
014
3F0
3EB
3F1
3ED
023
3DD
014
3D7
000
3E9
016
007
01F
00B
007
016
018
3D1
00C
01E
3E8
3FF
044
005
3FE
3E2
3FE
3E0
3E5
3CA
01C
3D7
3F5
026
3D0
002
046
3DC
3E2
019
01E
00D
3DC
3FD
002
3F5
02A
019
3F7
3F9
00B
3BD
017
06A
006
3EC
3DF
3FB
022
3FB
000
3F8
3E4
001
015
3F7
00E
3F6
3F3
01C
3F0
3CC
032
010
3FB
009
3EE
3FB
006
3E6
009
3B7
003
3F2
3D3
01A
011
3EB
3F4
3BC
00E
3FA
3FD
00A
009
3D3
00C
3E8
3CF
3F9
01C
3DF
3F3
01D
3E2
01B
3FC
01D
007
009
01E
023
3E3
3E6
3E2
3C3
3FD
03C
3E0
017
3EB
02B
3E7
00A
013
3F1
3FA
00E
3FA
000
01E
019
020
3ED
3F8
3E8
027
3FC
00A
3EE
3FD
3E1
3E6
000
3FC
3F1
3E1
3F5
3CD
050
039
3EC
3E7
3D0
3EB
3E7
013
3FA
00A
000
009
3EC
00C
3EA
031
3F0
3FC
02F
015
3FB
014
00C
00B
3EE
3C8
035
00C
3F1
002
393
3DE
03F
026
00D
006
00B
3F5
3EA
009
024
023
3F8
01D
3DE
00F
009
004
009
005
01D
3EC
00D
3F4
3DD
003
01D
01A
3E5
01C
024
004
3EC
00A
03B
00F
3FD
01B
012
3D6
00A
012
014
011
3FB
013
3CF
3F2
022
007
3DE
00D
045
3F6
003
3ED
019
005
3E9
022
01B
3E8
3F6
3DD
3F0
3F3
029
3DD
01F
011
3F4
008
008
3E4
005
00C
002
3F5
3F9
002
3D9
3F1
3E1
3FD
3E5
3F5
00E
3FA
3ED
3F4
3F9
02F
3ED
3EF
007
013
017
3FA
020
3E5
003
014
3DB
3E3
007
003
3E3
018
3EE
00F
3E5
3F3
3F0
03B
003
01F
029
017
3EE
3EB
3F4
001
3EC
006
029
01A
00A
000
017
3FA
039
012
3DD
3F7
018
3F9
00C
3E9
01A
01C
3F3
006
01D
3FE
3EF
3E4
3E8
3E6
3BA
037
3FB
011
3DA
003
3EE
3F5
3DB
00D
019
3FA
3E1
007
050
017
025
004
3DD
002
3EA
00C
01C
01F
3FB
3ED
3DE
3CD
003
3FA
3E2
3FA
026
00C
3FD
3E6
008
01F
015
3F9
028
3E3
006
3FD
3F4
012
01B
3EE
00A
3FB
005
021
3F0
3F6
006
3DD
016
010
3E9
3F8
3EA
012
3DC
3DF
3D5
01A
01B
003
3F6
00E
010
00F
3FD
3ED
02B
00D
3F4
005
03E
02C
3EC
3E2
004
003
024
011
00B
01F
3F2
022
3E1
3E0
3E6
007
01D
3DD
032
3E3
3EB
3D9
015
010
011
3F6
044
01D
3FA
01A
3DA
3FD
00E
00A
3EC
3F7
006
00F
019
00F
3ED
01C
3E0
3F1
001
3FB
006
016
004
022
3B4
3FF
017
3EF
009
020
001
3F0
006
005
036
000
00C
3E1
001
00D
3F2
3E3
3FA
003
00F
3DA
3D4
3DB
024
007
3F2
3F8
3DC
039
3FD
3EC
02B
016
3EF
007
3FF
3FA
00C
02A
01C
3FC
021
01E
3F8
3DB
01F
03A
3FF
020
3E7
3E0
3FA
03A
3DB
00E
3FB
3DC
006
00D
3F2
3EF
3F8
016
3F2
3E5
00E
012
00B
3E7
3EE
3F9
005
3EB
041
017
3DD
3EC
010
3FB
031
012
3E4
3E3
3F8
3EA
3CA
3FF
3EB
3EC
011
3DD
3EA
00B
3F0
3E0
00A
3DD
008
3F1
3E1
3F9
01A
01E
035
01F
01A
3EA
3FC
3EF
021
00F
3EA
005
3F4
3EC
3F9
3E6
00F
001
012
3F5
003
3DD
030
3EC
01A
007
3E2
017
3E6
3E6
3EE
3FE
00C
3E7
008
003
00B
3F8
3E8
3CC
010
3FF
028
3EE
3F7
3E4
3FC
3E1
3BC
002
3F4
3E1
004
3E9
3E0
3F2
023
3F4
010
3F1
004
003
3EA
015
01D
021
02F
024
3E2
002
00D
01C
3F3
021
3F2
3E5
3CC
3E5
007
3CD
002
01F
018
002
010
3DA
012
008
3F5
012
3E4
3F8
019
3EE
3FC
3EA
009
017
00A
3F7
00D
012
01C
3D4
3DF
011
046
3DB
3E3
3EE
3E0
006
3E8
3EB
005
3DB
027
02C
010
3AE
00E
3FB
3EC
3EF
017
014
014
010
3DD
04F
001
00F
3E5
3F6
002
020
3E5
3E9
006
3F2
009
3E2
00A
3EA
3E4
3EE
00C
3F2
3FD
3D1
02F
3F1
018
3FA
028
011
006
005
01D
00C
3FE
3E0
019
01E
00B
00E
003
000
3F3
021
00C
3FF
3F3
3F9
3E2
3E7
011
00E
011
015
3F3
02F
00F
00E
00B
3DE
3E1
3DF
01B
3F5
3DE
3E1
3ED
036
3FA
001
3EE
017
3C2
3FC
3CE
3F9
009
3FD
3D3
002
008
3D8
3F9
3E5
017
017
3DE
3B1
01E
3F5
020
004
006
3D1
012
01D
3DA
3DA
3DC
00E
006
020
022
3F6
016
3DF
3F6
3BF
04C
3F8
022
014
020
3FC
3F8
00C
028
3EA
3D2
046
004
3C9
023
019
3D3
3FD
018
3FB
3DE
3EE
3F1
02D
3D5
3F3
020
3EC
02B
013
015
01F
002
3DD
3EF
01E
3E0
3DC
3E8
3ED
3EE
019
3FE
006
006
019
01E
3EF
006
00E
00E
01F
008
3D7
3E8
00F
019
023
032
020
00E
3F3
011
00C
03C
3F1
3F3
002
001
01E
024
00D
3F7
011
3E4
00D
00E
012
00B
3E0
001
013
006
3FC
3DB
3F8
011
02E
010
003
3F7
3FA
003
01B
010
3F9
3EF
00D
006
3FB
017
017
00D
017
010
010
3EA
3F1
3ED
015
01C
3EE
3E8
016
3FF
3E4
004
3F9
3FC
018
004
007
01C
010
010
003
003
3F4
014
017
010
3C8
3F9
3EC
3E5
005
3D3
3F0
3E1
000
3F4
3E7
3DD
3F8
022
3E2
011
3EA
3E9
3E6
3F4
030
3F5
3E6
3EA
012
3F4
01C
020
005
017
022
3E9
3DD
3E3
019
01D
3FB
009
3DE
012
00E
033
3EB
011
3F0
3DA
004
3F4
019
015
3F8
3E1
3F0
3F1
01F
004
3E4
00F
3E6
010
02F
011
018
3EE
3F2
3DE
020
01E
3EB
3E8
00C
007
3DE
3ED
016
3E4
3EE
001
3EA
012
3E5
022
3F0
016
3F2
009
3E9
3DF
016
3FA
3F0
012
3EE
000
005
3DC
3F0
00B
023
3EA
3DF
3F1
019
3F5
003
00E
3DD
01E
018
00A
3E6
005
3E8
00A
004
3E9
3D0
004
3F8
3DE
014
3F3
3E6
02F
009
024
3EF
3DC
003
002
3DE
02D
3EA
3BB
3F5
3F7
3F1
3FA
00B
3FD
3F3
03E
3E8
3E2
01F
3EE
00A
012
01C
3E2
3DE
3FE
008
3F1
002
00F
3F1
3F6
000
009
021
3FE
038
021
3DB
00D
00D
023
019
3ED
01E
3E7
3DF
3D3
3F1
3E3
014
004
001
3FC
3E4
015
3FE
3F6
01A
010
02C
035
049
009
3DB
3DE
00A
3DE
3F3
3FD
3DF
00F
3DF
3ED
008
3E8
020
3DB
3FB
01E
3FB
3EE
017
3E8
3FB
005
3F7
01A
00F
017
003
3F5
01D
02F
3F6
021
021
3FC
01E
020
3FA
01A
00F
3E4
3DD
3F2
3EC
3F1
3FF
010
3E9
3DA
3E4
003
017
3EC
016
3DD
3D2
3E1
3F5
007
3F7
013
01C
036
027
008
014
3E6
3F9
004
01D
01E
3E6
00E
01A
3C0
3D7
006
01D
3E6
020
00D
00B
011
014
024
002
001
3D6
3F6
3E3
01C
008
3E9
3F7
02E
3F1
01B
3E9
020
3ED
3EF
3F9
005
3E7
3FF
3ED
3F9
3F3
021
3FE
3E3
017
025
003
3DF
3F4
3DF
018
00B
3F8
3DA
3E9
3D5
3DF
019
3EC
001
01C
3EB
3F9
3E9
3F2
3FD
3E3
01B
3ED
00B
3E5
3CC
017
018
00E
3E8
00F
021
3DD
3EC
017
3FA
3E9
3ED
3E7
01F
018
013
006
3F0
3F3
3FD
003
3FA
3E1
3FE
00B
3DB
022
012
017
3E6
01F
006
014
3D5
3F8
3DF
3E8
3EE
01D
3EC
3F4
00D
00C
3E0
001
3F7
3FE
00B
003
01E
023
025
01A
3E9
3FD
3CB
030
01B
3DE
03B
3E3
00B
3F1
3D0
3C6
00B
01D
013
012
024
3F9
3F8
3EA
3DC
01B
3F9
3F2
017
3E7
000
000
00E
000
3F2
00C
3F0
3EA
024
3F2
01F
3DC
3F5
01C
3F4
3F4
3E6
3EA
024
3F1
3E8
3FB
3E4
00D
015
00D
01B
00C
008
01F
00D
005
029
3DA
3E4
3E4
002
3ED
014
00C
3F2
3F7
3E5
003
017
005
027
3F1
3DA
019
011
026
004
3DB
005
3EB
3E0
015
006
3EA
01D
3F7
015
008
00C
00D
005
3F2
018
002
3F3
3F5
3DA
3FB
00C
3D6
006
3FE
020
3EA
3ED
017
027
01B
011
002
3D6
3E3
004
3EF
3FA
3DF
3E7
00D
3FA
01E
01B
01E
008
006
014
024
3ED
3F0
003
015
010
3E1
015
3E4
3E5
3ED
3E0
002
3F9
3DA
01B
013
3FB
3DF
009
3FB
3E7
3F4
019
3FC
01B
019
3F9
008
03A
00E
3FE
037
00B
00E
3DE
019
019
010
3DB
004
00D
01C
000
00E
01C
01F
012
3DE
3E1
3E6
01D
3E3
012
3FC
3F6
012
00D
01C
001
003
3FB
008
3F7
3EE
00A
3FF
3D5
015
018
3EF
021
008
014
020
003
008
3E9
3D8
3F2
000
00A
3F0
00A
3E5
022
00D
3E0
00C
00B
3E1
3DC
017
013
3DD
3D9
020
3F2
022
3EE
3EA
00A
3DC
3E5
007
3F7
3E0
01F
005
027
3EB
00F
3ED
015
3BD
3D9
00D
006
3E8
3E3
3EA
018
3F7
02C
3E2
01E
00F
3E9
3FE
028
010
3ED
3EE
3F6
00D
3F1
3F2
045
00D
3D5
03B
013
3E1
018
010
3EB
021
001
3EC
3E9
015
006
03F
3EA
013
00C
3E7
03F
00F
3DE
039
01C
000
006
3DB
003
3F4
3E3
3F1
3F2
013
3E6
00A
03C
3E9
3DA
006
02E
3F0
00E
015
3DD
000
019
3E8
012
3E0
00C
3EE
3E9
3E4
3BC
3E8
02F
3FE
037
014
01F
3F7
007
3FF
03C
3E1
004
039
01E
3F5
009
000
3F9
024
3FC
01E
004
009
001
01F
3D6
3F8
00E
01D
010
3EC
3AC
011
3F7
01F
012
3FE
01F
3E4
00A
3F1
00C
3F1
3EF
3CE
02F
014
004
01D
040
3C0
000
00A
001
3F2
01D
047
3E8
007
024
3DD
3F8
009
009
3F3
006
3E1
001
02E
3E7
012
001
3EF
014
3DC
3E7
03C
013
024
01C
005
3C1
014
3FD
018
01E
017
010
020
3D3
023
3DC
3F3
01B
014

