7C5
7CA
039
038
01A
7DE
7E8
7F6
7FE
7E0
7F6
7FA
02C
03B
02C
7E5
017
02D
7EE
7DB
7CC
014
037
7FC
03D
030
036
7DC
7FB
022
03F
7E2
7E6
7C5
015
02A
021
7D5
016
7C0
7D5
7EA
033
020
02A
025
7E4
035
01A
7C0
00D
7E5
025
030
7FF
014
7D3
7E8
7D5
7FC
7DB
7FB
7FC
027
008
023
03A
7E0
7D5
00F
7EB
7F7
7E1
01D
7F9
7D4
026
002
7FE
7F0
7F1
7C5
7C0
7E9
7D5
02A
02F
034
03C
7BF
7ED
01E
01C
7FC
02D
012
7D7
005
7C0
015
02D
007
7C3
016
7F7
02E
7C3
03D
000
7F4
7D7
7CC
042
003
026
03E
034
01F
02C
017
7DB
019
025
021
7FC
003
00E
00B
7F3
06F
049
01B
7EF
7D3
034
787
0E7
748
7A4
0EE
0BA
062
7A8
7FB
0C7
7B5
72B
7A2
0A0
032
7B7
051
03B
0A2
049
760
689
7EC
7C2
775
002
7EE
7F2
7E4
00F
005
021
02F
7D2
7CA
7E5
00A
7DA
7CD
7C7
022
7E1
00E
7D3
7CE
7D0
7CD
03F
03A
024
7C1
00A
011
7C9
7F2
036
7FF
01F
7C0
01C
7D3
02E
7D4
00C
02E
7FA
009
7E8
7D1
026
01A
7E2
004
7E7
7F4
7EF
7C5
00D
7C9
7F3
7FF
007
7E7
7E0
00C
00C
003
008
7F8
7C0
7F5
7E6
01A
7C9
037
7CA
00D
7D0
7FC
7D8
7C8
7C2
01F
7E3
7D9
014
7F1
03D
006
7D4
7D3
7E4
7E7
014
02A
030
7F7
037
00B
01D
7EB
031
02C
017
029
7DC
7CA
015
015
7F4
7DB
7E1
7F3
028
00E
03D
00E
7FF
7EE
7CD
00B
00F
018
003
035
7CE
01E
029
033
7F0
7F3
7E7
7C7
025
01B
03C
7DF
02C
7FB
7EC
7FC
7DD
7F5
7DD
005
7F6
013
7EA
7C4
004
032
7FB
019
015
7E0
036
032
7C2
7C6
7E5
7E9
00D
037
7E9
00B
7E7
00F
7FD
03B
02D
00C
005
7F3
7CB
036
7FD
029
7C1
011
034
004
7D6
028
7E2
7D5
03C
7DB
018
01A
7E2
03B
7EE
7D5
7CE
7D8
023
7D0
7CB
7D3
011
7D2
030
007
7CA
00B
7EB
02A
02C
7F3
03B
034
7FB
02D
00A
029
034
7E4
010
7CD
01B
7C0
7D7
01D
003
7C9
7DA
01B
024
7EB
017
7C5
03A
7D3
7F2
00F
038
7D9
009
7C3
7DA
7D9
7DC
7D4
7C1
03E
7CF
7E6
025
021
7DC
022
03A
7F8
7E2
7C2
7F2
7D1
019
7CD
01D
00F
7EB
72E
136
7EA
787
062
05B
087
08A
076
73B
76C
5D9
7C0
6E3
0CF
7C5
78C
07C
0D2
629
7E4
7A9
784
6CA
73C
058
0C6
06E
02C
787
7F8
7D0
7E6
7FD
039
04E
03D
033
7FD
01C
7BD
7D6
04B
7C4
068
00E
013
79A
04D
7A1
7EE
03B
7BF
057
05E
07D
7D0
006
7BE
034
7FF
007
7EE
01E
731
042
025
052
072
031
798
74C
782
762
017
7C5
063
019
12E
72A
058
717
059
0C4
7ED
0C3
75B
7FE
737
7E3
01D
7DF
1D3
01A
7DD
7DD
76F
6F1
7C2
015
06D
6F1
08E
0B3
74D
7C3
0E5
7A6
7E1
102
042
797
796
75D
007
014
74A
743
7C2
7F0
776
021
080
071
00E
77A
0A2
03B
031
035
008
7FF
7F8
7C6
7E4
7DE
00B
02F
003
7EA
7E9
035
7E1
00F
031
7E7
025
01D
7EF
02D
018
7D7
7CB
7D9
7C7
7DD
7E0
7EF
019
7D7
7D8
00B
005
00F
028
7DF
7DA
022
7D5
7DF
039
021
7F9
02A
7F8
010
7C1
025
035
02C
7C3
7E4
00E
005
006
7D9
7C1
7D6
013
036
7FC
7FC
7A7
146
719
7C5
6B0
14F
7A4
7F9
70F
009
036
055
79A
7DE
070
76D
798
723
0B9
7F6
7FF
01F
6E5
7EA
7E9
09D
7D4
7E5
067
7FD
75A
02B
7F7
00E
7C7
7FA
7C6
7FF
7DF
002
7CC
03A
7E0
7F3
00E
02B
019
7E3
028
03B
038
03D
7E4
017
011
003
7D6
012
7D8
7C7
00B
00F
7D2
7D9
02B
04B
786
0AA
769
099
0D3
79B
76C
0DF
076
7FE
77F
057
0B0
7DB
140
096
029
00A
00F
05F
0D1
07C
02C
7D7
0BB
0B2
0D1
7E4
02E
7E4
09C
051
0BB
119
7A3
08B
7F3
0C3
05B
7E2
013
002
0CF
7B0
001
07E
764
6E4
00A
0EF
053
7FA
005
0B1
777
7E0
01B
7FC
117
7CE
7C8
011
7D6
7D3
039
03D
7FD
00D
030
006
7FB
7CE
7C4
037
7DC
7D7
7F0
01A
004
036
03B
03E
012
7C8
02C
7C4
01E
7CE
7F9
02F
015
01C
036
7FB
047
747
797
77E
7E2
75F
01F
08F
027
7C4
054
7E7
0A2
062
7A3
760
052
7F1
7FC
044
007
0B3
04A
06F
777
7C5
7EA
7EA
0E7
047
034
022
031
7E8
059
06C
7FE
742
057
076
095
012
030
728
0B5
0D6
000
021
059
7E3
796
0AE
014
0A4
0E1
090
78D
78C
7AE
71A
78B
0DD
0BB
7D6
02F
7E3
01D
7D1
7C4
017
01D
7F7
032
7C3
7CB
7E2
7E0
029
03C
7EE
7DF
003
7F1
7C1
7FE
7FF
016
7DF
03A
017
009
7FC
035
7E9
7DB
7D7
027
71B
009
0C5
062
07E
042
042
0D2
7DB
012
058
069
057
7E6
05C
0C7
7AF
7F6
7E5
00A
032
036
079
0D0
7D0
04B
73C
7CC
7A7
7CE
7BB
035
007
024
053
063
7C6
109
0EA
7D8
7DC
7F4
7D9
7F6
02A
756
02D
021
7FF
7A3
7D9
6F7
01D
7A2
777
08B
76B
008
0F4
7F6
7EB
7CD
028
01E
040
7FF
7EB
7EE
7B5
7EF
7FE
007
7F7
009
7E0
7B2
7E6
7EE
002
7F2
04D
7EB
7EE
7DE
03A
7B0
014
7F3
7BB
008
7D4
050
024
7CC
7E6
757
7B6
0B3
0E2
032
082
0F1
7F7
076
066
7F0
0F8
0F2
7D9
050
0FD
74B
7EA
535
7DA
00B
700
003
0C9
7D6
764
7A0
7AC
008
7DB
6F7
007
00E
006
7D6
03B
7D6
00B
024
00D
025
028
7F9
00F
7D1
018
7C4
013
7C1
7EA
7E6
7E7
00A
03B
026
7D9
7D7
035
02A
03C
03B
7D7
7F2
7C7
7CB
7CF
7C6
7D7
02F
015
005
7D2
01C
7FF
037
00F
7DB
7F5
7C0
008
026
7D3
7C4
039
026
7DA
7CA
7CF
01D
02F
017
026
7D0
02F
009
7F6
00A
7E8
032
7E5
7CA
01C
03A
7FE
7D7
7C2
035
022
7CC
7F4
018
013
7D2
7F1
000
7E8
015
7D4
7C9
7E7
7C5
7F8
7F6
7CD
7F2
017
029
03B
031
7D2
00D
7EC
7FE
02C
7DC
7D5
02B
010
7C4
7FB
7E4
024
7FE
01C
7D2
7D0
7D7
03B
7D2
7D3
027
7E3
7D1
7D6
7CB
7E3
7EE
02C
7F9
026
01F
7EA
7D4
7E5
00B
7EE
036
036
7E0
032
7ED
016
028
025
021
013
7C5
7DF
7F5
7F4
7C2
7DE
02E
01C
02B
7C2
7F2
002
034
7D5
028
022
7D7
7F8
7DA
015
7D8
7DD
01C
014
7D4
00A
02E
7DE
7F1
032
03D
025
028
7C8
7F1
7F2
026
036
7E2
028
7FD
038
7F5
032
7DF
7C4
00F
7F6
01A
7EE
7CC
7F6
033
7EB
7E5
7E9
000
7F9
7F3
7DE
017
7D6
006
7C8
7F8
7F0
03A
7C7
7E7
7D8
02E
01B
02F
02F
033
7F0
006
7D3
014
7E7
002
02E
02E
7C8
7C8
015
032
03D
01B
7FD
7C4
7D7
7CB
7EC
006
7F3
00B
007
02B
022
012
03F
7DA
00A
7CD
7E4
7EE
013
015
7D0
7E6
7D7
016
0C5
7B5
75D
02A
024
094
7FA
7FC
053
7EE
780
008
00F
086
7BC
7B0
00C
0B4
09B
029
005
7B9
063
790
100
158
002
7DC
6B5
09B
009
7D6
7C7
7FB
000
023
00E
008
01A
014
7C5
03A
03A
7E2
00B
02B
005
034
022
03C
7E3
7EB
025
7DD
7C1
000
004
03B
7ED
7D5
01A
7CE
7E0
035
7F7
7F6
032
017
027
030
7F5
017
7FE
027
7EB
003
023
02A
7E0
7D6
7EF
037
7C9
03F
7E8
022
015
00E
7FA
033
016
011
7EA
020
7EC
7F2
06A
6E5
7C6
7E8
79D
76B
73C
7C3
726
76B
7DE
07C
0F0
077
7C3
71F
08D
0C2
7A5
02F
0B6
089
0AC
788
743
029
695
03B
03F
79A
030
7D1
03C
01F
7CA
7E0
7E1
011
7ED
7C0
01C
7FF
03A
7E1
009
02A
003
7C9
002
01F
7DB
021
7E6
7CC
7C8
00E
014
7F6
7E5
7FD
025
7E6
7FA
08F
075
02C
77C
7EE
7B8
7BE
020
052
0B9
7D5
0C6
749
060
73C
786
756
7C8
016
09B
0D2
7CE
79F
074
7B7
73C
7A5
7CF
7FB
084
09E
011
08A
030
035
764
7CE
7C0
7B2
767
763
71D
7C3
7C4
082
7BB
083
7E9
07F
05F
055
02A
042
72E
7A5
008
024
035
73C
75D
016
7EF
09F
7C0
7CC
7F6
013
002
00F
004
7E9
039
015
00F
01E
7D7
004
7DD
7CB
015
011
7D9
7C6
7D0
7FC
02F
013
7F7
7D3
01E
03A
7CC
03C
7DD
7C5
7DF
042
7FE
018
012
009
00F
038
791
7D7
003
72C
067
7A4
044
7A4
05C
7EB
09F
006
763
6C8
013
039
03F
7A5
01C
048
05F
7B3
7B6
7F5
7E2
030
7D3
7DF
018
7EC
7E2
03C
033
7C3
7D2
7E7
009
7C1
00F
7F3
7CD
7D4
01A
7E7
7EB
7DD
7C8
7F9
034
7C9
7D0
018
00A
7F0
7D9
7DE
020
7F9
7F8
02F
012
7DF
043
033
7C5
7E2
017
7C8
7FC
005
7DD
024
7E5
7E6
01E
7DE
7E1
02E
036
008
02B
7CB
7F4
035
7E4
00F
7F8
7FD
019
02C
047
7BE
7DC
032
01B
7A6
036
7C6
7A4
7D7
047
7C4
7DC
038
048
012
031
00F
02B
7C7
7E9
00B
7F1
01E
7DF
034
017
7C8
7CA
01A
7CE
02A
7EB
7DD
7CE
039
007
011
027
7DF
02D
7EE
7D7
7F5
007
02A
027
7E7
7E0
026
02C
7CB
7C0
7BD
031
7E4
03D
002
7D2
7FC
02F
7EB
002
026
088
07A
7B0
7E0
086
015
026
7ED
008
035
7C2
0B0
002
02D
060
7DC
0A1
697
063
01E
065
7EA
749
73B
053
7BE
7ED
7EB
0D1
7AA
7AE
66D
7B6
7CF
7F9
024
0A0
7DD
798
025
0B5
04B
74F
604
0F2
088
791
03C
790
75B
05E
7DE
763
0D6
6D2
71B
038
6FE
7BA
0DE
02A
7D1
7C1
61A
093
7B8
0BD
02A
096
7F1
75B
00C
0B6
7B0
001
7AB
029
7A6
047
00E
7F9
7C1
79B
0A8
725
79B
07D
05D
0AC
069
011
7E1
612
751
031
7CA
7FF
003
02D
085
775
709
064
7CA
029
069
7C5
7A9
051
748
064
008
04D
01A
057
037
07D
0C3
7F8
085
027
119
7FE
7D0
7C9
70E
7F1
7E7
7E5
7C7
023
034
7D6
000
017
7D6
7C7
026
019
031
7DA
035
029
02C
002
023
019
7D6
005
7E9
01E
00F
037
034
039
01D
7C1
016
01B
01F
7D5
7E1
7FF
025
018
7DC
7F7
028
010
7D4
008
7CC
013
00B
005
02C
015
024
002
7EC
02C
029
031
7E5
003
025
004
7C0
011
7D9
7E0
035
028
022
7D7
019
7FC
00C
7FA
021
7E8
01C
7EC
00D
7E0
036
016
012
7F8
017
7C7
7E1
7C8
7CE
7FD
001
7D7
7F3
00B
036
03D
7D0
7D6
037
01D
7DB
004
035
7CF
7F6
003
7C8
008
002
7D1
003
7C9
7CC
7F7
7E0
03D
7DB
7FA
7E5
7CD
7CB
7F9
011
00B
00E
7F9
01F
01E
03C
00B
020
7DF
7D1
014
7CF
00A
7F4
7FE
7FA
7D1
7F7
01A
003
7FA
7D2
7EA
014
039
7F7
7F7
7F7
018
7D7
7FB
009
7F3
7E0
030
016
00F
017
018
03A
7FB
7F8
030
7DC
031
014
7E0
7C8
01B
00B
037
037
7BE
038
7EF
7E0
7EF
02C
036
015
7C6
7CA
7F5
037
7FD
7D9
7CD
7FE
7D8
019
012
7F7
7C9
015
7D3
7FD
7F1
03C
039
7F0
005
7D3
7D1
034
7EA
016
7C1
7CF
026
7F8
7EA
028
015
7D9
023
7FD
7CD
7E0
7C2
00C
01B
03A
7D7
7A5
780
793
0CF
720
157
061
7F7
0D9
7EF
73C
7DA
068
058
03A
0B9
78A
711
793
74B
7EC
06D
01B
789
0BA
75B
773
073
71B
05E
7DA

