3E7
000
3E1
3FF
07B
02F
3EB
3F0
018
3FB
3EF
030
00B
03E
3FB
3B4
095
3FC
000
04E
3D9
3DB
3A0
027
3AF
3F5
00B
3E9
3F0
3E6
001
3F3
3E3
02A
02D
02D
3E7
3D3
3E9
075
3DE
3F0
3FA
3F9
028
058
00D
3DB
025
3E7
00F
3D0
013
00B
3CD
04C
021
00B
013
000
3FE
3DB
3DB
392
3ED
3DD
01E
3FA
0B8
3F2
3E0
3D1
3D1
016
3E4
3F0
01F
3C5
026
010
00A
3F0
3ED
39E
01D
058
0A1
01F
080
06F
01E
00E
000
3E6
3FC
00B
3D5
019
3EB
01F
3FB
3F5
3F8
027
3FE
005
3DA
00D
3B7
013
02B
3FD
3E5
029
018
01D
3DB
3B1
3E9
3DA
3DB
024
026
00C
013
3EB
01D
3F0
027
3F6
01A
00C
078
3EC
3E4
3FE
013
3FB
3DD
3FD
3E7
3D0
017
3F4
3EA
000
3CF
378
01F
081
03F
3D3
065
01C
3DD
3E6
3F2
00D
02D
3F4
3CF
019
01F
3E5
3D3
005
3F4
022
3D9
3E9
3F9
3FB
3F9
3D5
3E6
061
3D5
013
003
022
00E
3AA
3E5
02D
3CE
3E6
01B
3FF
3DC
02A
00D
026
3D9
3F5
3F1
3D4
3FE
01C
029
00B
022
3EB
025
01F
3E5
01D
015
030
3E1
00A
3D0
39F
019
05A
01D
006
014
010
3F4
02F
3D0
019
041
022
3D7
3ED
022
025
00E
004
02A
006
02E
014
041
3F5
003
028
3F4
038
014
012
01B
3FC
009
3C6
3E4
010
3FD
00E
3CF
3D5
3F1
3D4
3E6
3E7
3FC
3E7
00B
3D3
3FC
00D
3E5
3CF
006
022
3E6
3D2
01B
3F2
034
3E9
3A4
029
021
3AA
02D
03C
01D
3FB
005
00B
00C
017
3BD
3EB
000
3CE
000
3E9
00E
00D
00B
3D4
024
3F3
3DA
012
02E
000
3D7
3F9
3CD
028
005
3F3
01C
012
00D
3C1
395
030
01C
017
3EA
013
009
007
3E9
013
3F0
3EA
028
3ED
3D9
02A
014
3E2
3DD
3EC
3EF
025
027
00A
022
059
3A3
007
3D2
3DB
01E
05A
01C
3F9
06E
023
3DF
05B
3F8
005
3DD
3E0
01E
3F9
3EF
3E3
3F0
027
01F
007
3EC
3E3
084
3DA
01A
006
3F3
077
3D5
012
00D
3FC
3E7
3A8
3E0
046
3D6
3FF
00D
3F7
3E8
026
3F2
00D
02A
3D6
3E1
014
01C
3DE
3D9
01C
00A
008
3F6
3DF
00F
3EF
034
037
3A9
3FA
030
3F2
001
01F
07A
01B
077
01F
3EB
020
008
3FE
3C9
3D2
3FD
016
3D5
015
01E
3D8
02C
3F1
027
000
057
014
00A
3EC
3D9
041
3FA
3D5
3CA
3DA
3B7
3D4
3F8
3EC
029
02F
024
00D
011
023
01E
049
3E1
3EC
02D
3DD
05E
02E
3FE
002
3DD
3D6
3FF
3FB
004
3AF
3E5
04C
3F5
3CF
3E4
3CC
3E3
073
09C
3E1
06E
05B
3ED
3F7
00D
00C
3EA
013
016
3D7
3D9
3CF
3D0
3E0
011
00D
00D
015
00D
3F4
01D
024
3F6
04C
3D3
3F9
3DC
3FF
3C5
396
3CC
001
3F8
01C
3FF
3F6
010
3EE
004
011
3F6
3FA
019
001
071
02D
3FE
3CE
3F5
005
030
3E3
3ED
3AD
029
034
3F4
3E0
3D1
3E2
01F
06B
080
013
06D
078
3FC
3ED
3DB
01A
3D7
3D8
3E3
00D
3D5
011
016
3DB
3E4
054
3E3
020
3EA
01C
3DD
00A
015
3C1
3EE
3D7
017
3D8
3DC
3B7
3EA
3E7
3CC
3CF
00E
3FF
3F7
3D0
000
000
3D0
003
3FE
3D0
3C9
004
009
01F
006
01C
3E6
019
019
029
3FA
2D3
04A
3F2
024
3CA
02C
3DC
38A
3D9
2A1
04B
3D9
33B
3E3
007
0BB
3D2
3E1
00E
003
3FF
3E8
3E0
026
012
3E3
3EB
2EF
01E
02D
088
3EC
3A3
022
3F6
005
01B
063
066
02B
088
017
009
3D7
3EA
02A
3CC
007
3CA
013
3F3
3DF
3D0
082
003
028
002
3D9
3DB
3D2
01E
3EC
3DA
005
3F9
028
3E5
3D3
3D2
3E5
3E2
3FF
3E8
3FB
016
3F8
02E
3A2
009
02D
3E7
3FA
01A
009
014
00F
3D7
02B
3FA
3DB
3DE
3EB
3F4
024
039
3E8
03D
005
028
00F
3FF
026
014
3C9
3CE
3D7
3D6
029
006
3D3
029
017
00E
024
028
3E1
3FE
052
3DC
013
003
00F
3EC
3E0
3F7
3D8
3DF
3D5
3F0
3E4
01A
3E5
394
015
042
065
007
034
05E
00F
3BE
3B0
012
039
02B
3DE
000
023
3E0
018
3D6
3F5
028
3EA
001
3D0
3F6
024
3B7
3FC
001
3FF
3EA
3E0
3FE
04B
3F1
00C
035
3E2
3F8
3DF
01B
3FA
01C
3ED
01C
3E0
3EC
016
3F0
004
3D0
001
3EA
3E4
01E
3FD
3F9
3F8
01A
3DB
374
3B3
009
019
3E3
3E5
027
3C6
3E3
394
004
010
3E6
03B
002
07A
3E2
3DD
02B
3E6
000
3F0
3FA
006
3B6
00F
3EF
39C
02B
002
3D7
3F7
004
3D7
004
3FA
3CF
0D1
3F3
3F0
044
01F
00F
01E
3E1
017
3F0
3EE
01B
003
3EB
3FD
3FF
00A
3EF
3F1
00B
006
3F1
3FC
3DC
02C
013
00A
398
36F
3E2
3D0
032
3EB
049
353
3D9
3B6
3CF
3DB
012
07C
00D
070
022
3CF
3F4
3CF
027
3D2
3E1
3FA
3B9
3DC
018
3DA
01B
3F7
3F0
3F3
005
025
018
006
3C9
0C4
3C5
3A6
077
017
3D4
01B
3D8
3D8
019
3D0
01C
001
001
3F4
029
3AD
3D0
3E6
01E
3FC
3F9
3D1
3F0
004
038
3F3
3EC
315
3DE
018
3D8
02B
3FF
33B
3EB
3D8
3A9
3D0
076
062
3FD
017
3FC
3F3
3D0
00A
3E6
019
01F
025
3E5
3FE
3F0
099
02E
025
06C
3EC
04C
3E6
3F9
3ED
3F0
03D
3CC
3AF
3D9
029
012
3FD
3EA
3EB
3F5
3E2
033
028
003
3E8
00C
3C7
3D6
009
028
3E7
00A
026
3E4
005
3D4
3CC
047
323
01A
016
3DE
002
3F1
3C3
019
036
38C
028
083
03F
013
3CB
026
3DD
00A
3EC
00B
3D5
3FF
3E8
01B
029
3EE
063
3F2
03D
3F7
008
001
3D5
3F5
00B
3D9
01E
3DC
021
3DB
019
02E
019
004
3D1
009
3E0
3FD
025
01B
02E
006
034
01A
3DA
008
014
3F5
3D3
3F9
012
012
009
078
3A6
01D
027
3F0
006
004
3D4
01B
018
3D6
016
085
047
3CF
00E
3D8
029
001
008
013
3D8
01E
3E9
3EB
015
004
08C
022
3D1
3F1
3DF
049
02E
003
3CE
00D
012
012
001
027
3D0
3E1
3F3
3E6
010
014
019
07A
3FC
015
3CF
3CC
3F8
011
022
3FA
3D2
007
3FB
008
3DB
3F5
007
035
3AB
020
3E4
3EF
3DD
046
033
3DB
008
030
3E1
02B
004
3F2
001
3EA
024
02C
3E2
00B
3EB
028
3DB
02F
018
000
090
012
3D2
380
027
025
00D
3D6
3DC
01F
3FC
3E7
3EF
3DF
3F8
3CF
3DF
3F2
3EE
022
027
05D
01F
3EE
013
3DC
099
3E5
3DF
3DA
3DE
3F1
019
3D5
016
3FB
3E2
038
3B9
00D
01C
027
3D3
01A
061
3D5
08D
02E
00D
046
3E1
00B
01D
006
3ED
024
3E0
3D3
3DA
01C
3E5
04D
029
3D4
02A
3E0
3BF
3A9
3D3
033
00D
3DC
3FB
3E8
01A
3BA
006
3FE
3CF
3EE
024
008
004
01A
003
042
3FB
011
005
3ED
002
000
3D3
02C
022
3E8
3E1
3FF
024
3E3
02F
03E
00E
3DB
3DD
3FC
018
02C
00E
3CF
044
054
02B
027
024
3D6
3D2
002
013
3DC
029
019
3EF
007
3DC
3EA
3D6
01C
004
3F7
3F2
013
3F4
004
3D3
3F2
3FD
01A
3E9
007
020
3AB
3DC
3D7
3FC
029
3EE
3DF
3F4
072
3D9
3E1
007
3DC
05B
3D3
3E1
028
005
000
3E6
012
3E9
005
3D9
015
3D8
020
3D8
014
02E
00B
004
3E1
3FF
3E2
3D2
044
00E
02C
005
3D2
004
3CF
3D6
017
00B
011
02A
3E4
018
3EB
3E2
02B
005
3FB
3F0
3DE
3F5
00F
3C2
3D5
019
3E8
3DD
04A
3F0
3EF
3F1
024
3EB
3DD
00A
3F6
3EC
3D8
00C
3D8
01A
01D
3D9
3FF
3F0
3EF
005
3FA
019
03A
3DB
35E
048
012
3DE
01E
003
018
00A
022
3D5
025
3F0
01C
05A
01C
022
3EA
003
3FE
3DA
02B
3F7
02B
014
3F7
3D5
3E5
3B9
01E
007
028
025
3B5
000
012
001
3D1
031
3EE
3D4
3C6
023
3E2
011
3E3
3D0
02C
01F
056
01B
3E1
3EF
3FB
3A9
3FF
3FB
3E8
026
02E
009
006
009
040
02D
346
37B
004
3E5
3E6
01D
05D
38D
00A
3FB
37D
3D3
00B
036
012
0A9
008
025
3E8
025
019
3D0
3D7
009
3DC
007
3DF
38D
3F8
3D4
3FD
3EC
3EA
3F4
3EF
00A
3DB
0BA
3CA
3DF
3DF
00B
3FE
02A
3DA
3FA
009
3E6
004
3DB
3F7
00F
020
3A5
3F9
3D2
3CE
004
3D7
3F0
3DF
002
052
3CA
2E7
345
3FA
3FF
3D4
3DE
028
349
3E5
3C7
340
3DA
023
3B4
3DF
098
02C
000
00A
3D9
00C
011
3EA
3F6
387
3FF
02C
3F5
01E
3A6
088
000
089
3D8
3D5
030
3E7
0BC
389
3A7
039
020
013
3D1
3EF
009
3DF
3FB
032
3CD
3CF
3DD
3FF
029
3EF
3E3
013
3F7
3E5
02F
3F2
3EB
073
009
316
2BD
3F5
3D8
3E1
3D0
3E7
39A
02C
01A
3E7
3DF
050
3AC
3F0
035
028
3E0
01B
02D
006
3EC
018
009
386
01D
013
3FE
3E7
3E5
038
009
053
025
3CF
015
3CC
3A2
384
3C6
3C1
3F6
3E6
3DA
024
3D7
3E5
00F
078
3D1
014
3E2
3E0
3F9
01B
3DF
3D6
3FB
3FE
3DC
3E3
3E6
395
3E6
31A
3C2
021
030
04A
3E1
39D
3ED
012
027
3E3
3F8
0C9
3EB
3DD
3B1
015
02D
00B
3F9
3FF
3E1
3EA
3EF
3A8
3DF
3E2
074
014
3F9
3A8
00D
3EF
3F7
005
3E8
3D2
34D
3F9
3DD
3D8
3DE
3E2
3E1
3E1
014
3FB
01C
0EC
00A
001
3EE
3FE
3FC
019
3E6
3DE
3F3
027
3E7
3D9
3F1
349
3FA
395
03D
3CE
3EC
050
3CF
39A
00E
02C
3C2
000
3E6
083
002
3C1
3DD
3EB
008
011
025
3FB
025
3F8
3DB
3CE
3E9
006
0E8
018
3C3
3BA
02B
3D4
3DB
3D3
012
01F
3D5
3F7
3DD
3D1
021
3F1
02B
3DC
3D7
3E2
3FD
0C3
016
3FC
016
3CC
007
3F9
018
3E8
013
3D2
009
3E1
014
3A4
3D1
3DC
3ED
3D1
3EB
047
3E7
38D
03D
00D
025
00C
3DC
3E9
3EC
3E7
04F
3E1
029
3F3
3F1
013
3DB
3FD
3E9
016
3DE
015
109
3F7
3DC
39C
000
02E
00F
3F4
3D7
012
3E5
3F8
3F1
01B
018
3E4
3D9
3D8
028
3EB
00D
096
3E7
3E0
011
01B
06E
3E6
3EE
3F1
004
3F8
3D6
3DA
3D4
3D4
015
3F9
049
3D9
3F3
007
01D
384
030
001
01F
02B
01B
3C9
3D9
024
038
3D0
3D2
023
3EB
3E8
000
3F8
3E7
028
006
3D4
08F
00C
386
3CB
010
005
3D4
026
3BD
3DB
007
3D3
3CC
3CF
02A
3E0
007
3F8
022
3F6
3E1
058
010
00F
015
010
3C8
3EF
3E4
00B
3D3
3FA
3EB
3E4
3E1
3EB
02E
02A
02A
014
00E
037
3CF
3CB
005
3EC
3D6
06A
030
3BA
3E3
3D1
022
3DD
017
3D9
00D
3D3
012
3E6
012
036
3E3
3F6
006
011
3E8
399
026
3FA
3F2
016
020
007
3FF
3FA
02B
3C4
007
3ED
3DE
001
3D2
017
3D4
046
3FB
3DB
3F1
3D3
025
001
3E3
3D8
3DC
3DE
3E9
3CF
3F1
3E5
024
005
038
3EC
01B
3DC
020
3F8
3D2
3FF
3D5
00B
023
02D
3C9
00A
058
3DD
3D8
00C
3D3
3EA
3E5
3F4
00B
008
3D1
3F1
3C9
3FC
02D
020
3DA
008
010
001
3DA
3DC
05A
039
3F8
022
01E
3F2
3F0
003
020
3FF
00C
000
003
021
00D
00D
3C7
3DD
025
014
3F6
3E7
02D
3D2
3F1
039
016
380
3D5
015
3F4
3B5
028
399
3E9
3FC
3D6
083
3DF
02D
06B
002
030
008
3D8
3E1
006
3D1
3E7
020
3EA
012
3DB
3FC
3A4
025
001
3F3
3DE
3D2
010
3E0
031
012
07E
3B9
00B
3D7
028
004
3D8
3D0
019
01B
023
02B
3F9
3D5
021
02E
324
3D4
3D8
012
006
3E2
3FA
3D0
02C
018
3FD
346
37C
010
018
311
01B
375
377
007
36C
377
3DA
3AE
3FF
3FA
06D
002
3D3
01F
022
3E5
013
3E8
030
3E7
011
3EB
3DD
3E0
033
05B
01A
055
026
3EF
053
00E
0FF
3B0
3ED
3A7
3D8
004
01F
016
3CE
026
001
079
3D1
3CF
024
005
2E4
3EC
02E
3E8
02B
3E3
010
010
3D0
07A
3C6
38A
321
3CF
022
338
01F
385
342
3D7
331
36D
3E9
3C3
381
041
0B9
004
3F5
3FD
018
3FD
3E2
3DE
3EA
356
021
017
3E4
3FF
36A
03F
3FA
18A
3D9
3E2
052
3FC
0EC
3AA
3ED
3A2
00D
028
006
00D
3D6
3CF
3E2
022
3E7
3F1
023
026
0F3
3F6
3DB
3D5
00E
3E1
012
026
00A
165
3EC
021
39A
3D3
006
3D8
3DB
367
017
005
322
04C
020
0A6
330
002
082
023
3F1
00A
00E
3DE
3CC
020
3E5
30E
3E1
3FC
389
024
030
393
02E
3C4
3E3
017
3DD
3CA
2F5
3D1
3B9
031
01E
3F1
003
3ED
021
3F2
3E6
100
3E4
3E7
016
3F4
3F0
3E9
01A
004
025
011
3F7
3D4
004
329
04D
3AD
02D
019
004
38E
021
348
3D3
027
379
025
3F3
0A7
3E8
3E3
059
01B
01A
3FA
014
020
011
028
02D
3A1
3D4
3EF
3D8
019
08F
360
3F9
304
3D2
027
3BB
000
3CD
3A0
00A
007
3E2
02E
000
3D7
3CD
024
01F
0E2
3E8
01F
3F8
3F9
005
00E
003
008
3EF
3E4
3D4
3E6
3DE
2BD
3F8
38F
0C5
01C
019
06D
3D9
34C
342
021
370
3E3
3EE
39D
060
3BB
069
3EC
00D
013
3F8
3E3
013
3DB
019
3D9
3CF
027
0CF
3CC
3DB
3AB
3FD
003
006
024
3F8
000
38D
3DD
3E7
018
01A
023
3EB
3F8
3FC
3D4
00A
0C5
016
016
3F1
01A
3DC
002
3F9
3DC
002
3DE
02D
3D4
3EC
35A
001
3B9
0D6
3E0
01F
099
01B
360
32E
3F1
3C7
00F
3FC
3BE
3FC
3C5
02B
3F8
009
3E4
011
00C
022
3DD
00D
033
02B
3D7
11B
3D7
3B8
3B2
003
3EE
3D0
3E1
3ED
3DE
3DA
3EE
027
052
3CB
3FB
3D7
3E5
014
3F9
3D3
084
3DF
026
008
002
06D
3D4
3F4
3FA
005
01B
012
02F
3FE
3DB
3DA
3F6
092
3E8
019
3FB
3E5
3CC
396
013
3B1
013
3DB
3BD
34A
3EE
06F
3FD
028
009
3D9
00E
3D7
3E3
3E1
06A
3ED
3E9
09F
3D1
390
3A5
3E5
000
3E7
00E
3DC
020
026
060
012
05B
01B
00D
3E5
3FC
3F2
3E1
3FC
3E9
024
3D3
006
3E2
016
3F1
3D2
3E4
3DA
003
3EC
3D8
02A
01E
3E5
01A
05A
015
021
3D3
018
3DF
3CD
01B
3EA
047
015
032
3C9
014
3E6
3D4
00E
3DC
003
3FB
02A
02A
007
047
3F1
014
056
3E0
3EC
3EA
023
3C2
01D
3F8
00F
3E7
032
036
007
01A
3F5
00B
3DB
00A
3D8
00B
00B
3F8
004
3DB
3D2
3E1
3F6
3D0
3CF
01B
3D1
016
022
3D0
3DC
01A
3E1
071
014
3FD
3ED
3DA
003
006
3DA
3FD
3EF
040
3F5
04F
019
3F2
3E7
3E0
011
01B
3F9
3EA
004
017
008
03A
002
3D8
3F9
001
3DB
05B
00C
074
005
01B
3FA
3EE
047
3F8
3FD
399
3F4
3DE
3DF
01F
3D1
01F
3EA
04F
004
3F3
016
020
355
3E0
3D3
004
3FF
02E
004
3F8
00F
025
009
0A3
3FC
3D7
00D
3A8
3E8
3BE
061
005
37D
3FE
3F4
38F
071
002
3FF
01C
012
3EC
3FF
001
02A
023
3FD
073
3FB
3EF
022
3F0
026
05F
016
016
017
3E8
005
01E
00C
077
03D
384
01D
3EA
3D3
029
3DD
01B
00F
097
3F5
3F3
3D8
3D8
319
3DE
02B
002
3E1
3FC
002
3EE
011
033
3C5
0D4
356
3D9
01E
308
020
3FA
043
3EF
37E
385
019
3AC
014
01F
03F
3F8
3DC
3E1
02D
014
00C
02D
3CF
010
3D3
3DE
00F
00C
3E9
3F0
029
03E
029
009
02E
3E7
019
07F
06C
357
3E3
026
3F6
3D4
3EB
3F7
3F6
09F
3EB
3E3
3E5
3D8
367
3F2
3CF
00D
025
3DB
008
00D
01E
07D
3B8
059
07A
3CD
009
33D
011
3F0
3E6
012
009
365
00D
3E3
03B
016
0B7
3DD
3FA
3F6
3E8
01C
3F6
009
3EF
394
001
028
3E7
01E
322
3C4
02D
051
009
00A
025
021
3EE
0B4
397
2BA
3D5
3D9
3D0
01E
008
01E
3F8
085
02A
3FE
3E8
3EF
0FF
006
3F6
3DE
3F6
3E4
3DA
3D4
3E4
181
038
051
3E6
3E5
3DE
365
021
080
090
3FF
02B
3C4
023
1B2
3AD
01A
164
013
02C
3FC
021
3F2
02C
015
01E
2EE
3F1
023
387
3FB
3C2
381
3ED
336
000
3F6
3F4
3E9
03B
0EC
391
007
008
011
008
3ED
008
3E7
3DA
051
016
3F3
00C
3F2
3A9
010
3D6
3DE
030
01E
019
000
3E7
2E0
04F
08B
37F
024
3D5
352
006
039
3FE
3F0
028
003
00F
0DF
359
3C9
075
3D0
006
3D4
005
3CC
023
001
02F
280
3F3
3E3
341
3EF
357
09B
01F
2D5
000
01B
3F5
027
056
0AF
02D
100
3D2
000
011
005
005
3D0
01F
018
3D0
02A
3D5
3D8
3F8
016
026
3E4
3D6
3EE
021
3D7
027
2FB
04C
05C
01A
021
3D5
386
010
091
30D
3D1
3F5
00D
022
0B2
057
3C1
3E3
003
021
3E1
01C
3DF
021
3D9
00C
3BA
01C
3FF
3BC
3CA
2B1
102
023
3DF
3F4
3DF
006
3D3
004
094
05E
035
3C9
3F1
01C
3E1
00A
010
006
02B
001
02A
3F8
3F4
008
3D5
02A
3EC
3F9
000
01C
020
3F0
35B
3F3
019
072
01D
019
3A9
3E1
0B6
2BE
3E8
3CC
3D2
3E1
0BB
3F7
3BE
3AD
3E8
01D
010
3EA
3D0
3D9
001
3EE
022
3F6
3D7
3F0
3E5
352
0A2
3E0
3D0
02A
3E9
00C
008
018
091
086
029
3CB
029
008
3DC
011
016
019
03D
3EB
3F7
3D9
003
053
002
3FB
015
3F8
010
3F7
00F
005
398
002
026
03A
3CF
3EC
385
002
0A4
392
3EA
3C9
028
3F3
032
3B4
00D
3FA
3E0
00E
014
02C
02C
3E4
3D4
016
091
008
02B
3F4
00B
35C
015
011
3F6
3F2
02E
3FB
00C
009
038
05D
3F5
02B
3DB
014
029
3EF
3D8
3CF
3C3
3E3
025
3D9
017
01E
022
001
3FD
3E3
3D8
001
3D0
02B
02E
012
003
031
3CE
3DC
3FB
3E7
074
3F5
00D
046
02B
01E
01D
3F0
015
3F7
014
00F
3CF
026
3D1
3E8
3EA
3F9
01B
3F3
3F1
3F9
3F7
01E
061
00F
3CC
009
02E
024
009
00F
020
008
3A6
3DF
3D4
3D2
3F5
006
00D
3EE
3B7
01A
3E4
3E6
021
3E9
3E7
3E8
3E1
3FD
3DC
010
017
3E5
033
3D6
09F
3E7
3FF
3ED
041
029
05D
015
3F0
075
3E7
006
084
02B
3E1
3BD
02E
010
016
3EE
3F2
3EC
006
3DF
004
01D
015
034
00D
044
03A
3E4
062
3E5
3F5
3B6
3D8
3FA
384
036
392
02A
3EE
3F2
3ED
017
3E3
3E1
3F0
3FC
01E
01D
01F
365
00C
3EA
3CB
3E9
3D7
016
02A
024
03E
01B
092
006
3F9
3E0
089
3DD
09F
0AD
3F0
04F
022
3DD
01B
0B8
026
004
008
026
3F1
3F8
01E
006
3D5
3E7
003
3DC
3EE
07F
3F6
044
01A
3ED
3DC
3F7
3D7
3F6
3ED
38A
385
3C4
34E
3EF
007
3D9
3FB
3E1
01D
014
029
3F4
3FD
026
016
2EB
014
016
005
026
02E
3D0
3CF
3FE
02C
3D3
079
00E
00B
3CF
07B
3D4
0BF
02C
02B
00D
397
3EE
399
08D
3EE
3FF
3FB
3E3
02D
3F2
3CE
3EB
3DB
3DC
3B4
011
026
02E
3D1
3A4
00D
028
2D1
3F7
029
3AA
018
33D
36A
394
339
014
006
00D
002
00C
3F5
3D4
072
3EB
015
3DF
01F
3A7
3FF
3FF
3EC
009
3F6
3FC
025
022
084
3B1
02C
103
01E
3CF
0E1
3E0
05E
338
3F6
02C
3B6
02F
3BD
093
04D
00E
3FF
3F9
02E
3F8
023
3D7
00E
3E3
007
006
3F5
3F1
3F7
3BB
07B
3E8
364
3D7
3FE
3D2
3D9
386
3C5
25F
2B8
019
014
3F6
3EF
006
3D4
3DF
060
015
3DD
010
007
0A7
3FE
3F8
00B
010
3F1
3D2
02A
3EC
065
3D8
021
045
015
011
0B1
3D1
3EA
32A
3D7
045
399
01C
339
2C4
002
023
007
00D
3E6
3E3
01A
019
00E
3DE
2F1
01C
3D4
052
020
15A
150
028
305
3DD
005
3E1
011
02F
3D6
36C
311
3C6
3FC
3F0
01E
01E
3F7
3DF
3D8
3EA
3DF
017
3D4
067
007
007
02B
017
013
00D
027
3EB
31B
3EA
040
396
01B
3F0
15A
01A
3C8
3D9
01D
3E5
2AA
3E4
3A7
2CC
003
042
026
029
02B
01B
01B
002
000
02F
3F7
3D0
023
3C9
3E5
072
0BF
005
3E0
00E
015
3B2
3D9
0EA
3D2
0CC
37B
015
3F6
007
01F
02A
3CE
00A
003
3EF
3F6
3F7
017
091
3D4
006
025
3E8
012
3E3
3F2
01D
398
008
051
000
01A
017
123
000
064
08A
3E3
392
27B
021
014
356
3E6
010
004
3FC
014
00F
3E6
025
3E1
014
0E3
00C
001
02A
3CE
34C
05E
3D4
3F9
01D
004
38F
3EC
3EA
3B1
009
065
000
007
3E9
017
016
3EA
3D7
01B
022
3EE
00D
003
085
01F
030
3DF
3D2
3F0
01F
3EB
3E9
025
023
07C
3D2
01F
3D5
067
3D5
065
0F8
002
3F2
38E
3D4
02A
037
3E5
03D
3D3
3DD
3E7
004
3F7
022
009
3EC
0DF
3E1
010
032
3FF
361
064
028
3B2
02D
3F3
002
3D1
008
360
002
039
3E5
02B
029
3D2
02A
020
006
3AB
3D7
010
00F
027
057
3E8
3F9
3FC
3F7
3E4
025
3E0
3F6
3EF
012
066
3E4
3E9
00A
3BF
3F1
079
09A
007
3EF
056
3DD
013
024
01F
056
3E8
016
3DD
00A
3D4
01B
013
3ED
0DB
3D6
006
056
3F0
382
036
02B
3C9
3CD
3F3
009
000
3D2
390
037
3EE
02B
3D8
02F
01A
01C
025
3D4
386
012
004
00F
3FE
3FA
015
01D
010
3F4
3D0
017
3EA
3F2
02B
02A
03A
3EE
3F0
3E2
064
3D0
027
097
3D4
007
3F1
02B
034
038
012
02C
00B
01C
3F3
3F6
3FC
3FB
00A
3EE
04A
005
3D6
024
004
3C0
051
027
3DD
01F
028
009
3CF
020
3DC
000
365
00C
3F0
000
3F2
02E
3FE
011
3C9
006
3E7
027
003
3F1
01C
021
00E
019
3D7
00E
023
3DC
023
3D8
040
3D6
3D0
01C
049
3E4
3E3
015
024
04C
3F6
008
021
05F
004
02F
00C
01C
3F0
011
3DC
3E4
011
3F0
023
3E7
02D
031
3DB
060
39A
025
01F
3FD
004
008
016
3A5
3AF
003
001
010
3F3
3D1
00D
3DB
010
018
3F1
3FD
02F
3D2
3D4
371
005
3DE
014
3DF
3D9
3F9
008
00D
3E4
3E2
393
02C
3F9
3D0
054
026
3DA
092
3DD
0AE
00A
3D6
000
0D2
02E
3E6
010
3D0
3E0
3D6
009
3E9
01D
01E
383
02B
010
3A6
020
0C0
38D
3E1
020
011
3D2
000
01D
37C
39C
3DE
3EB
3EE
3EA
02C
3D1
3D4
3E6
01E
02A
020
3F7
025
3E7
356
3D2
3DE
3E0
013
3D6
027
00E
008
011
3FD
399
083
3F5
022
07F
01D
3AB
06A
3F5
082
329
3DE
384
134
019
345
3DA
007
3D1
020
3CD
01E
3F1
3F1
3AC
02A
009
345
3D3
3E2
3D0
02B
3ED
004
01B
010
015
3D5
36A
29B
3F5
3F7
015
3FF
004
013
3E4
3EE
004
00A
015
3D3
3EA
3CA
3D6
001
01D
3ED
023
3D0
009
007
072
3B8
3FE
002
000
3E4
08E
3FB
320
04D
00E
010
013
3D2
3DF
14B
045
2E5
018
3DE
00D
3E8
011
001
3F2
005
387
02A
020
058
3EB
3C5
0D1
3E2
3E2
020
3D8
04D
005
0F5
3D1
2AF
03E
02D
02A
3EA
3F1
3E9
3D8
3D7
3C9
3E4
013
01A
00A
001
3FF
02F
3F0
022
02F
3ED
005
01A
039
3A8
3DE
38C
02A
3D3
02D
029
335
007
3F5
06C
063
3FC
38F
323
052
2CF
019
3DE
3F9
006
025
3CF
3F9
01A
0B7
3EC
3CB
3E2
3D1
01B
0D2
3D8
2C0
000
3DD
01A
3E1
113
380
122
3F2
3E9
010
3EA
023
3DB
016
3D3
38F
3F8
017
3DB
010
04A
3FF
3EC
3E5
028
01E
015
00A
3CE
015
3EC
003
0AB
029
004
3A4
010
325
3D2
3DD
072
3B5
01C
004
39A
3D6
3F1
3D0
3FB
00E
007
021
3E8
3D9
014
11D
02D
005
38E
00B
002
090
018
3AE
3F9
3D5
3D5
3D8
376
33C
081
3A6
023
3D5
00A
010
022
3E3
3D4
334
00A
009
3F0
00F
077
011
030
021
3E2
01B
01F
001
3D3
3EF
3DB
01B
098
02A
01D
3F8
3E0
325
04F
3E4
3DC
3A7
027
39D
067
3E7
06B
3D7
006
01C
01F
3CE
3E4
3EA
3E7
3CD
012
019
089
00C
045
05E
3EC
050
015
00E
3D8
023
3C4
30E
03E
3DB
3F8
3DD
02A
013
002
3CD
01C
2ED
3F9
3FB
3DF
00B
0AA
3E9
3F9
3D6
01D
3E9
3DE
00A
3F5
027
009
013
3F8
3ED
023
066
017
347
03C
3F1
008
3D4
01B
3D2
07E
3FD
028
3DE
3FA
3E9
012
3FF
01E
3F6
3F2
3D3
3D0
3E4
05F
3FE
02A
05C
3E6
07C
3DA
023
3F3
00F
3EC
35C
01D
03E
3EB
3D0
00C
3D6
013
3EF
000
2FD
3EC
002
026
023
07B
00E
01D
011
3DC
3D8
008
3F5
02E
097
3F6
011
3C8
3EC
3EC
06E
3EB
342
0A1
004
024
037
3E3
3CF
036
3E4
3FD
3EC
3EA
3FD
02B
013
3D6
3FA
010
02C
3F5
3CD
01A
3E1
3E6
3F7
3F0
00C
00D
3E5
3EA
020
034
382
3F2
04B
3CC
021
021
3E9
021
01D
3EE
334
020
008
3E2
3FB
027
3E8
3F6
3DC
3E6
3F2
000
00C
00D
021
013
024
3A5
3E0
014
058
3DE
3DB
03F
3D4
031
053
023
014
062
00F
004
3D0
02B
3E0
00E
00D
00F
003
3E9
07E
3ED
3FE
3E6
3DF
008
012
015
057
02B
3DC
025
010
052
373
01E
034
011
013
3EF
014
3CD
01E
3F2
36D
009
3D4
02D
3FA
018
3DF
027
02C
3E2
013
014
3F8
3F3
03F
3F5
3C5
01E
3F1
3F4
3E6
022
009
037
3D6
013
029
008
3D8
025
3E6
3EF
024
3E5
02B
3D1
016
01D
011
016
3DF
3FF
02E
3D8
013
057
390
3D9
034
3FA
3FD
00E
3D1
3DC
035
3EE
01C
016
3F6
027
009
018
029
3CD
3FD
014
3D6
015
022
3A3
3D9
011
3F9
3E0
3F4
030
3F8
008
017
01B
3C7
03F
011
011
020
3ED
007
075
3D6
064
07D
005
38C
03F
01A
030
3FC
012
3DD
023
3CE
02A
028
00E
3B5
02F
3E9
394
00E
07F
363
00B
026
3DB
3E2
3D6
3CE
371
02C
387
037
3DD
3EF
007
3D6
3EB
3E2
3D6
013
029
017
012
3D7
3A3
003
3FA
012
015
3E8
000
028
007
019
3BC
3C8
0AD
3FD
3F9
016
024
009
003
3DA
072
36D
00B
345
08A
018
380
3ED
027
026
3F1
3E4
3EF
005
3E6
35C
3FE
013
323
3D3
0C5
2C4
3F0
095
3D1
3CF
036
3E6
3BD
083
350
059
3EC
02B
01D
3E1
015
3D7
3F5
009
3EB
02D
3FA
3FA
3F3
019
3FB
3FA
01C
02D
00A
010
013
006
3FB
02E
3C8
3DE
3FF
3E6
3D3
35E
390
3E7
042
366
3FD
399
02C
021
2FC
022
3DC
012
3EE
013
01C
012
3EC
3C9
019
017
01B
012
0E5
3CB
01C
05D
3E2
01E
00D
006
05A
09D
3CA
0E6
3FE
3D6
3E1
028
3F9
013
3CA
39B
3EA
3E4
007
3F1
3D3
000
3E4
3F1
3E5
3FD
3E1
027
022
00C
3C1
059
3C8
006
003
35F
3EA
33C
3FA
3D2
024
394
01C
029
3B5
3F1
368
3F0
3DB
00D
3FE
3E0
01A
003
3F1
0CF
028
3D0
3E4
3DB
3FF
395
010
3FE
015
01E
040
3E3
3E4
0D5
0E3
088
02F
3FF
02A
001
027
3FD
3F5
33B
024
3EC
3DA
024
013
015
023
01A
01A
025
023
3E2
3E8
034
3E1
00F
05F
3F5
005
336
02E
39B
3E7
00C
047
3B3
01B
042
378
3F8
384
006
3E3
018
01D
3D2
029
3FB
3FF
3F2
02C
3E5
387
3E5
007
003
3E1
017
02C
02E
036
3E1
323
08E
089
04D
004
3E2
3E6
00E
003
02C
3DB
341
020
3E4
00F
026
013
02E
023
3DA
3E5
3F3
028
020
3E6
3D1
3D4
002
094
3E5
004
388
00C
39B
3DA
3EE
3D5
3F9
3FB
03A
037
000
383
00B
3E3
3D5
024
003
3FA
3F5
3F3
3F1
3DB
3EC
3E3
3CE
057
03A
012
05E
00A
01A
014
026
355
0C8
067
054
00B
025
3EF
3F8
004
3F7
3D2
38F
3EC
02B
3F3
022
010
008
004
016
3D8
3F0
3D5
3E6
3DC
3D7
3C9
033
062
3E8
02A
3CF
3E4
3BC
3C6
00E
36F
3FF
022
3EA
04E
3D3
370
3FC
00A
3EF
3D1
3F5
004
3FF
3F9
38A
3D6
023
02D
00F
082
3DF
001
088
025
3F6
012
020
36F
0D3
070
063
02B
01D
3E1
01B
3E1
000
3D8
3BD
3F1
011
3E1
3E7
008
020
01B
01E
3EC
3DA
030
02E
02C
3F9
3DF
3BF
009
00E
007
3E3
3F6
3C6
3C2
01E
362
07D
00F
3DD
007
3D4
3C6
3D2
01A
01B
3F0
021
005
02E
3E6
3F2
3D5
3E3
011
3DC
00D
3CC
3E2
042
3E2
3E5
3EE
024
3D1
088
038
0A8
008
02C
019
3DE
3D6
00A
01D
3A6
3F8
3E2
007
00D
01A
01C
01A
3ED
3D4
3FA
3DB
3CF
022
3FE
3F5
3C2
3C7
3E0
02A
035
019
3D3
026
029
02C
06C
013
008
03E
3C5
3C5
00F
3E5
02C
002
3EA
3EE
01D
3D9
001
3F7
3EA
3E7
3DB
040
396
3D8
034
01A
3E8
3DE
3F2
015
009
3FF
05D
3F4
023
3F7
3DA
3F7
3F9
019
3CF
3F4
014
001
3EF
3F8
3F8
027
015
02B
3F8
3E2
02D
007
009
01F
3CB
01D
3D8
017
033
3F0
038
3BB
018
3F5
031
3E9
3DA
032
3E9
003
029
3EB
3E3
3FA
3DE
022
01B
3D4
033
027
010
3AA
004
033
3D4
3CE
3F0
3FA
3CF
018
3E2
021
06F
018
051
3E3
3DC
3F2
003
007
3DC
016
00A
023
3E5
02A
029
393
3D6
3DA
018
3F8
3F3
3EB
027
3DB
3DC
016
3B6
054
3E4
023
3F7
3D2
068
043
01E
048
0BD
3F2
327
3FA
3DD
3B3
011
012
3E4
015
3EC
3E0
02D
005
00A
3D0
3FF
3B6
3D2
021
3AA
3F1
399
3DF
004
3CF
00C
3DA
071
3D9
016
3D6
3D1
00E
3FC
001
028
3E9
011
3D9
3D1
3CD
3E5
3A9
01F
014
3F4
3DC
3EA
3E6
00B
005
3DC
3E2
3C2
3F9
3F8
3EA
045
011
066
022
002
00A
022
030
368
3FB
027
3BD
00E
3E4
3EE
3DE
024
008
3FD
3D0
3DF
3D0
3F1
362
021
096
320
3D3
3C3
007
001
00F
3DB
01B
056
3D5
05E
3E8
02C
3DD
023
007
003
3CD
3F9
3D4
3F4
028
019
3A7
3ED
3F8
020
3FB
010
3EA
020
3E4
3F2
003
3D7
3BE
00E
3EC
036
3D0
042
3D0
005
3F6
39D
3E5
389
3E2
3EA
351
3FA
019
3DF
3E3
00B
016
013
3F1
08A
015
3EF
3BC
025
0BE
38B
3DB
3AE
011
02D
010
021
08F
046
02F
068
001
3FC
00C
3DB
3F4
3FF
3DB
3BF
020
018
3ED
030
3C6
3FF
020
3F5
009
021
00D
3DA
3D5
02C
010
015
040
3DA
3CF
01B
3CF
023
017
016
39D
3A1
3F6
020
3CC
02B
3AD
3D2
026
002
3EA
013
3FE
3D2
3F6
09A
3D0
021
3C3
01E
051
00A
3D9
03D
000
018
040
027
3C0
01A
085
01C
02D
003
3E9
02C
018
3DA
3DB
381
008
010
020
004
3E4
030
007
3F5
001
003
3EE
3F0
006
016
3C6
00E
000
027
029
05D
3EF
052
033
3D4
3BE
3F1
3D8
3F1
3A6
3D9
3CF
3FA
3CD
3D2
3F8
003
02C
02F
3D4
061
02D
029
3E3
3DE
069
02E
3DC
04A
00D
3D9
3F7
3D6
3B1
07E
064
011
3ED
3D3
002
3E3
3F7
3E4
3E5
3CC
3E5
3FE
00F
3DC
3B6
000
013
3F4
013
001
005
015
017
3FF
3E6
022
047
02D
00E
02A
000
03D
005
00F
399
002
3D2
3ED
013
026
39B
3FB
3E0
3DD
029
017
3E4
001
3D5
069
3F9
3F5
3B6
3F6
034
3EC
028
04F
3D6
00D
025
3D3
394
05C
08C
3E9
00A
000
3D8
014
026
3E4
01C
3AD
02A
019
3E0
012
006
3E7
3E0
003
3DA
3FB
3D5
3EB
029
3E8
014
3E8
0A8
005
3FF
00A
00E
040
3DC
3EB
3CC
01F
3E7
3D7
3AA
3D2
3BC
3F6
013
3E4
3D8
3D6
3FB
3DC
021
3F0
3CF
014
3EE
3ED
3EA
3B6
3DC
024
003
3E3
3F6
3CA
3A3
08B
046
005
021
3EB
3F2
021
3ED
3E8
004
3AD
3D2
3DC
3D8
3DB
064
3EC
003
02B
3E8
3EF
3D8
3D7
3E2
3D0
3E8
01A
06A
02C
3DF
3ED
3DF
00E
3E3
01C
024
0A3
011
3AD
3BB
01A
3F7
3F5
3F0
012
001
013
3D7
3F1
02E
040
3F5
02E
3D7
00B
39B
384
3F5
3CE
3EE
01A
3D5
3FB
3B1
010
02D
042
00C
01A
011
3EC
3E2
3FC
3EA
3DE
01C
029
3EF
3FC
011
01A
3F4
012
001
3D9
3DE
3D7
003
3C2
3F9
050
3F0
3F7
3CF
3DF
3CF
3EC
033
3FE
034
02C
010
3DA
3DF
002
3CE
00A
3E8
3E2
3D8
01F
029
3D1
3DC
3AA
019
011
3FB
026
001
3D3
00B
3DD
3F7
007
3C7
3E8
3F7
007
02D
000
3FA
011
000
3EA
029
3E9
020
3EA
3D6
3F6
3F6
3D2
000
02E
3D4
003
00A
3D6
3D5
014
3E5
3CA
01E
02A
3FC
00A
3E6
030
020
061
00F
007
072
022
012
03F
3FF
3D4
3FF
026
01A
3FD
3DA
020
3E9
012
3D2
3CA
3FB
3E1
041
022
3E0
03F
3E3
3FB
009
3D6
3C4
013
03E
004
3E3
3CA
014
3FD
005
3D4
3DE
001
028
017
3DA
3D8
3D0
002
019
003
006
3FD
3EB
02E
02C
3DE
3DF
3E0
02C
017
020
3F8
009
004
3EE
092
020
3DA
092
087
3F6
3A4
018
3C9
3CB
3EF
005
3F5
3EF
013
025
3EE
005
00A
3EF
3F2
3D8
011
3DD
3A7
3DB
3F3
020
3D8
3EA
017
022
007
020
3F8
00A
3F9
3DB
3D7
3F1
3F2
012
3FF
024
3E9
3E8
3D7
3EB
3EA
3FD
3F4
029
014
3E7
006
3E0
061
018
3BF
00F
001
016
03F
013
077
017
02E
00D
045
3F7
3A1
002
3DA
3BE
006
3EF
3E0
3D6
004
018
000
3F9
014
3CF
3DD
385
3E3
04F
3B5
01C
3CE
023
013
00D
013
02D
074
3F5
015
3DF
01C
3EB
020
3FC
3F4
021
3DD
3EF
3E4
3D5
3EE
3A4
3D2
00D
012
01A
3DA
3D1
3FB
000
05D
002
3E1
3DE
001
01B
03F
00C
022
3CB
027
3C8
042
019
3D3
00D
3D5
3BE
021
3D4
3DC
3F3
3E1
3D9
3E3
000
010
01B
014
3B2
019
0A4
3FA
015
3C9
3DE
002
028
3E2
064
076
013
027
3CD
010
3DB
3D4
3D9
3FE
00B
3C8
01A
020
3EB
02B
3C0
005
3E3
00A
3D8
3CF
3DB
3F3
3D1
041
01C
3DB
032
021
3CF
01E
3E2
03C
02C
01F
3F9
01F
3FC
3C6
3C8
3ED
3AA
027
01A
3CF
02F
3D9
3DE
02B
3FC
042
3F0
010
3CE
028
075
02E
3E3
3D8
018
017
3E8
3EF
3F8
077
047
057
00B
3FC
01F
014
001
3F2
3E8
385
3FE
3E2
01C
018
3C9
01D
3D6
3E3
3D8
3E0
3F7
3FA
3FF
029
3F7
3D6
036
3FD
007
008
3E1
3F3
3E8
3DD
3C7
011
3F6
3A5
3D3
00C
035
00E
3EE
02A
01F
3FE
01E
3FB
3D7
033
3E6
004
3C0
3ED
026
01C
3DD
052
012
3F2
000
00D
3D0
038
074
039
3EA
3DD
006
3EE
3F9
01F
3E3
3A8
006
3FA
3E3
00A
00D
3E6
009
015
02B
3E9
018
026
00E
002
029
042
03A
3D1
01D
03F
00A
03A
05F
023
3ED
040
3EF
3D9
3DD
009
011
016
02D
02E
3E3
3EB
002
3F9
3FC
03F
001
027
39D
01B
02D
021
3FB
055
3E9
3D1
3FF
002
3F2
04A
037
01E
014
3EA
3F2
015
010
3E2
02B
3B5
01A
3D9
00D
00A
3FC
3ED
3E7
017
3E0
023
001
02F
3D0
01B
3F3
03E
058
027
3F5
033
3F5
049
02E
00F
023
051
3F2
039
396
022
01D
01D
3D0
00B
3DE
3FE
3F2
028
00C
021
3F2
021
00F
3FC
3AD
3E6
01E
029
3DD
001
3C0
00B
3D0
024
035
003
3CE
021
3E5
3D7
00F
3CC
020
3A4
009
013
3D3
3FF
06B
3D4
01E
01A
01D
3EE
009
006
022
3C3
3F8
05B
020
3E2
3F5
001
3DD
03F
07D
3E3
06C
09E
3EF
040
3C6
01D
3CC
02B
3D2
3F5
3E4
3F2
016
000
3D6
3F0
00C
3E3
015
3EB
373
024
3EA
005
00D
027
3C8
013
3D3
3AB
019
007
026
3FE
3FE
3DF
3D3
3F0
3DD
3FD
3F9
3D1
01E
00A
3E0
020
3D3
3DF
022
3F6
3EC
3E0
3DB
00E
3FF
057
3C6
3DA
3EC
3F7
026
3FB
3F1
3FF
05E
016
013
074
3F8
01E
3DB
02D
00D
026
3E2
003
3D1
3D1
3D4
368
02A
3D5
06F
3F8
3E7
016
01A
036
3E9
02C
3CA
3F3
3C8
3D6
3FB
39B
3EC
018
015
013
02B
01B
3FE
05B

