FCB
0A9
E1C
FF8
099
0BF
F5F
043
ECB
087
FB8
F4D
00F
F7E
011
054
FED
E31
081
F74
DB4
EF2
0B8
01C
024
F5A
EA4
035
FEB
118
05B
F81
FF2
FB9
015
FC8
F8B
FBF
F8F
FA0
F8E
F68
0DB
156
ECF
003
00F
0C8
05D
EDE
E25
ED6
072
07B
F2A
F9D
FE5
13F
09B
EDC
D86
053
EF4
F09
132
FA4
0B9
099
F99
FC4
D00
FB4
076
027
FB0
0FB
0A0
F04
FDC
FD7
B08
F86
E93
038
00A
0C0
FB9
F54
067
079
FAB
091
08A
036
052
ED5
E39
F40
F41
03C
EA2
FC2
FB7
EC4
F6E
F5E
07F
F55
0FE
F83
035
E89
DF3
012
13E
00D
FA7
EE1
FB2
079
D1E
1AB
FE5
084
F37
FCB
EB4
FBF
F85
02E
FF7
01A
FF3
042
062
FD1
FB5
003
00A
FAE
01E
114
009
EAC
FE1
FE9
F54
08D
F3D
000
DD4
012
FFC
F38
13F
EC2
03E
0D8
EDE
FD0

