034
033
7DB
047
01B
04D
7E7
7C0
7C1
7C1
7CC
7C9
01E
7D2
7F5
02F
7DE
7E3
0C0
040
7FC
6A0
05B
05A
033
7CA
037
7DC
08A
7CB
07D
7C5
739
7D1
076
7CC
03F
028
0D9
06A
03F
77C
012
7D4
063
7E9
061
780
79E
62A
0E9
7DD
044
0F9
005
76D
718
068
78F
76D
0F2
7B6
79F
09C
065
010
730
7FA
033
0C0
011
7C5
09D
022
00B
71E
7F1
79C
058
04F
00C
0A5
080
7DE
012
079
6EC
0E7
024
6EC
78F
032
6E8
7FC
01F
0F7
75F
029
7CC
7BF
08A
07A
6F3
0F7
03F
02C
7C0
02F
7F4
7B1
095
0C7
064
6C2
098
03A
724
089
063
01C
7C2
028
04D
077
0AB
7E0
761
7DA
7E0
76A
03E
7A2
708
048
0D3
030
7CB
041
7BA
7AA
790
7E9
03C
050
03B
059
762
03A
76D
6BC
10B
01B
79F
728
06C
09D
144
7D5
76C
739
7CB
756
7C9
7D7
731
7F1
709
14A
6D7
782
0C2
102
7D0
025
7D5
0E9
7DF
047
6F8
7FF
0BB
5D3
72D
08E
05E
041
111
7E8
7E4
7CB
055
02D
031
026
792
7D9
0C2
023
081
76C
159
0D5
706
040
798
004
0B2
716
747
7B9
071
7D1
018
0DD
64A
180
7E3
00B
0A8
077
02E
7F4
755
04B
79A
01D
047
7C6
02D
01E
017
060
7FC
7E1
76F
7B0
0C4
7F8
00B
073
738
063
7FC
7AE
73A
74A
011
034
78B
75F
7E0
045
075
035
772
19A
07C
7C7
73F
7AC
7B1
699
7B5
04E
0E8
003
0B4
055
7FF
004
006
7B2
129
7DF
763
00C
035
09E
670
0D3
06E
693
6D8
74E
6F2
7C5
070
706
04B
793
64E
7CF
022
6E0
7F6
0B5
78E
131
11C
0CF
7D9
7AC
0B1
0BF
7E9
0C3
7FC
7B3
013
770
12A
0B2
10F
00E
6EC
7A3
721
01E
6E1
72F
7FD
776
775
7A0
127
76B
097
0F8
096
01B
0AE
11D
717
7AA
096
7B6
0F0
7C8
7F0
039
78B
7AE
7FD
721
6CE
0B2
7E1
02A
088
04B
040
03F
724
0E4
04E
017
01F
04B
7C9
6F2
1E4
048
74F
0D1
7DD
7DC
0B7
78D
73B
004
0C4
033
006
021
004
731
069
03B
7F4
7A9
6DE
7CB
7B0
0AF
089
016
0DC
000
7E2
0CD
78A
042
04E
774
0A0
792
6FF
02F
7B9
04F
029
020
18A
7E9
7C2
7FA
067
6E0
5BA
03A
023
7EF
0D6
7E9
6F6
7A3
17B
07F
115
7C9
04F
03B
032
6C9
76C
7F0
091
75C
7F6
001
7A7
02A
064
043
001
7E1
023
041
0C3
7DB
7F6
0D4
04F
735
107
7BE
720
775
05A
022
766
7D2
03F
7FA
730
0B2
743
6F7
130
09A
6C5
7D1
7FE
02D
056
7F5
124
021
7A6
0A4
7DA
73C
7C5
005
7AD
7E6
0C0
7E1
03B
6B3
0E6
7E5
0D0
7D1
7DB
120
0A1
66C
70B
087
088
6FD
03E
7DB
7AC
7C7
79F
6D8
797
025
09F
128
730
7C7
0E7
78F
03A
16F
082
7A7
082
699

